/**
  ******************************************************************************
  * @file    network_data_params.c
  * @author  AST Embedded Analytics Research Platform
  * @date    2025-07-22T23:02:45+0800
  * @brief   AI Tool Automatic Code Generator for Embedded NN computing
  ******************************************************************************
  * Copyright (c) 2025 STMicroelectronics.
  * All rights reserved.
  *
  * This software is licensed under terms that can be found in the LICENSE file
  * in the root directory of this software component.
  * If no LICENSE file comes with this software, it is provided AS-IS.
  ******************************************************************************
  */

#include "network_data_params.h"


/**  Activations Section  ****************************************************/
ai_handle g_network_activations_table[1 + 2] = {
  AI_HANDLE_PTR(AI_MAGIC_MARKER),
  AI_HANDLE_PTR(NULL),
  AI_HANDLE_PTR(AI_MAGIC_MARKER),
};




/**  Weights Section  ********************************************************/
AI_ALIGNED(32)
const ai_u64 s_network_weights_array_u64[8202] = {
  0xbf0f4ef83f261dbeU, 0x3d3c29f0bdba5706U, 0xbe164723bd821b03U, 0xbe4663eb3dc4936eU,
  0x3f064351beddddc0U, 0x3f013c48be5770d0U, 0x3e93129cbecf7475U, 0x3f11a260be5f7812U,
  0xbe5da782bd62b6a4U, 0x3ef8c6703c16a8bcU, 0x3e483be43f142593U, 0x3e7f089f3ed5f8a1U,
  0x3e25c9bbbbf73ddcU, 0x3ebe925c3e2259deU, 0xbecf17b23df70568U, 0xbeedd69c3ee98fd7U,
  0x3e8b8986bdd130baU, 0x3e23dd1b3dfc818fU, 0x3d6708a1bdd92ccbU, 0x3ddb7af4beded4b7U,
  0xbd93e264bd0e640eU, 0xbc41cbe6bce59937U, 0xbd0243cbbcf6dd1fU, 0x3deb40c13d6f47acU,
  0xbeef3380bd11811eU, 0xbde6cc1e3d34421eU, 0xbe654daebc3f77a3U, 0x3cf484263b4f60f4U,
  0x3e2ae0aa3e1a019dU, 0x3e8bd2bebda70697U, 0x3cad52b03e8d7b80U, 0x3e8c73c8bbe0f2b5U,
  0xbed47c4cbe98cfb0U, 0x3e6bb8383e8c78c2U, 0xbda120993e173440U, 0xbe80d4ebbd26c37bU,
  0x3d4f38acbdd438a9U, 0x3d4086943e6040c3U, 0xbe31137b3e73b1a6U, 0xbe3be0dbbe064e8eU,
  0x3af667a7be42fd87U, 0x3e2f35253cc7c445U, 0x3d25f9543d996017U, 0xbdcac4333de1d3a0U,
  0x3e35f5d83d561539U, 0x3e11f733bdbaedc4U, 0x3e801200be046db0U, 0x3ccd1a783cfb1dc3U,
  0xbd9af488be34ac71U, 0xbe5a62363e222ce0U, 0x3e5981083d6415ffU, 0x3db0b0c3bdfb74a8U,
  0xbe22c7f43e5e0994U, 0x3d72fb58bce33d33U, 0xbe03126e3d2f2a7eU, 0xbd820673bda4bb3fU,
  0x3ddc4c453e12b7fdU, 0x3e987c2c3e61bf42U, 0xbe2d8b7f3dc806a9U, 0x3d6f58c4be2abbb6U,
  0x3e6ea8bfbe2ec0bdU, 0x3e2fae78bcd95f81U, 0x3e4820ab3c87f955U, 0x3daf12c3be57414cU,
  0x3e2c8181bdc414f6U, 0xbe58631b3ec0e6d9U, 0xbdb9b42c3e2c23e8U, 0x3e0dc4503dc18f22U,
  0x3da31c61bd4f78e9U, 0xbdd8a16d3ec1d9d0U, 0x3e3c31bbbe012d21U, 0x3e5bc9be3e201fc6U,
  0x3e0758ac3da1af85U, 0x3e400b383e39cf89U, 0xbc998e81bd17cdc7U, 0x3e4565cc3d39a1bcU,
  0xbe095c8e3ea8f633U, 0x3d715d3e3e9d9ac2U, 0xbe03557d3e2b2e94U, 0x3e6afb383b8042f1U,
  0x3e08b33c3cf20526U, 0xbc70ebe53ea2bbd2U, 0xbe1eaed0bc94078cU, 0xbbea73fc3d362b82U,
  0x3e6e03a2bdc7531fU, 0xbe6080a33d97e878U, 0x3e8e3dd1bd324f03U, 0x3c82d4e0be08b02dU,
  0x3e99ebea3e8a0401U, 0x3e4d3f8ebe8b34ecU, 0x3cf1b9d3beba644dU, 0x3e6c16a13e4d75d8U,
  0x3e1e7f2bbe2fddf0U, 0x3dcc8c10be60731aU, 0x3d29292b3d1ac2feU, 0xbd489acd3d65e798U,
  0xbe304a6abd8afc69U, 0xbdfcdc1abe622013U, 0xbc8061df3ea404caU, 0xbcc5e971bd8abba8U,
  0x3dd09cb23e95040eU, 0x3dee2ce9bdc34e1dU, 0xbbd80e44bd1d9e09U, 0xbd88b126be40897aU,
  0xbe5ae423b922bf50U, 0x3d5626763ddaaa4aU, 0xbdb03780bc9045e6U, 0x3bbb851abd4a8e31U,
  0xbf0577bbbdd31013U, 0xbed35dee3cde2552U, 0x3e1539383e8f6f04U, 0x3e587ef7bd98d4a6U,
  0x3eb01ddf3d5fc6c2U, 0xbddb87583e10f595U, 0x3c4692f2bec157b7U, 0x3e8e39663e520bc9U,
  0x3e37c5e1bf1ec094U, 0xbebb931c3e297484U, 0xbe3ff482be94d8c1U, 0xbe26459f3e1c6165U,
  0xbda242b0bc738eedU, 0xbdfd9d673e2667f3U, 0xbe35bb283dc07e13U, 0xbce468f63e185174U,
  0xbe233331bd39803cU, 0xbdc55d36bdcc8a55U, 0x3e353717bd80e81eU, 0x3e78d51ebecec5b1U,
  0xbd2049a5be5a9f6bU, 0x3df7d413be8c49f5U, 0xbe612f09bd4d6d5aU, 0x3d07c2f5be4340abU,
  0x3e0e9665bea8d549U, 0x3dfac6b6bd462b7eU, 0x3e98ecca3e463da1U, 0x3d394a44be0ef511U,
  0xbd27abd63e695d57U, 0x3e10e06cbdffc234U, 0x3e40f5533e68b2ebU, 0xbe70f493bbd28647U,
  0xbdb01e693de3debcU, 0x3d6d15a2bdeebde2U, 0x3d246ed83e9f4355U, 0xbe13cc693e0edfcdU,
  0x3e9a732c3ea1e37bU, 0xbe940c7f3e313492U, 0x3de62aab3ccb2c8dU, 0x3e11efbe3e52217fU,
  0xbe611f6b3e07a3fbU, 0xbeae3e60bd381732U, 0xbe4d61793d292eaeU, 0xbe1a2ca8bc1edf28U,
  0xbd4acb203db83f8fU, 0xbe8406913cfa6eccU, 0x3c93534d3e5e1704U, 0x3d908ef2bdce6f6dU,
  0x3e5677cdbd5e6897U, 0xbe00efff3e550632U, 0x3e868b5f3e977c15U, 0x3e26d5da3dda37b2U,
  0x3e38de383e6c9b04U, 0xbd59c9353eb2b50bU, 0x3d9658c2bd95a0d6U, 0x3e6a12ab3e4ee442U,
  0x3ea420e93d8dbe2fU, 0x3e0069a2bb21eccdU, 0x3e97c63a3d92d3f2U, 0xbbabf6a5bd0c3c0bU,
  0xbe7a28733e2c174fU, 0xbe2d6b663e36f499U, 0x3df4d5cdbd85fd0fU, 0xbe9425003d45524bU,
  0x3e137ae0beb0c234U, 0xbe86c58abe31ef05U, 0x3e4a58213e8ec1d8U, 0xbd789073be844775U,
  0xbe2d0e213e880946U, 0xbe11c3b0bd03477eU, 0xbd3588debe08587fU, 0xbdf6a75f3cffe17eU,
  0x3e01762bbea5e4d0U, 0x3e7300603dfe2968U, 0x3e4a462a3e27a5cbU, 0x3db91bf5be12287aU,
  0x3e73b6323e167334U, 0x3e80686f3c055096U, 0xbc91905dbe10f882U, 0xbda4b25d3e20a0d5U,
  0x3e3471ea3e413a11U, 0xbe75266abe132200U, 0x3e7ce25a3df7e175U, 0x3bc66ef73de8727eU,
  0x3de589e63e511542U, 0x3e5ff693be40839fU, 0xbe0b262e3d10852cU, 0x3e8658c0bd7b8062U,
  0xbbbc260bbdca6b69U, 0xbe1ddbe5be94c36bU, 0x3dd65457be95003eU, 0xbe4a5511bd535e30U,
  0x3db5c5e03e0e0f2fU, 0xbd42bdfd3daa9637U, 0x3e29edaa3e5243c4U, 0xbe4c70c0be381b8fU,
  0xbe8af690bd9b2565U, 0xbdca46103e3fbe03U, 0xbe4be6cdbd86134cU, 0xbe5fa06f3c9fe7e1U,
  0x3e3b80d5be249894U, 0xbcf5a5e1bcc218edU, 0xbd6356c93b8954ffU, 0x3e50ff2d3e82929eU,
  0x3ce7511dbe965962U, 0x3e2861f2bd9fb5b0U, 0xbe34d357bc364336U, 0x3d91127a3e1b0aedU,
  0xbdd3971b3e6c96e6U, 0x3dc4614c3e0649d4U, 0x3e56e4e1be2f23d9U, 0xbe4333373e0f295bU,
  0xbdb45c10bec28a3bU, 0x3e0ebf073e340831U, 0x3e2fb8003e933ecdU, 0xbe0bc37bbe644ee3U,
  0x3decc4883e5dc178U, 0x3e3334c2bdd1745eU, 0x3e61083bbddd4af2U, 0x3e8bc2463d8d0cd7U,
  0x3e875f473e1821bcU, 0xbe1ff8ca3e7df19aU, 0x3e63779bbdcc1c07U, 0xbc9d94283e810182U,
  0x3db43fdbbe6e3d79U, 0x3db48e17bda360faU, 0xbd6de2dcbda398ceU, 0xbd43e024be0a85c8U,
  0x3e00cfdb3e716669U, 0x3e7f2b723e058824U, 0xbe5b00f93dd9ffcdU, 0x3b305d8f3dd5f1d6U,
  0x3da11161be8431b6U, 0x3dc311ea3e6b7f00U, 0x3d16164fbdc45a3cU, 0xbe017584be3ca0c4U,
  0xbe14231e3e981acbU, 0xbda8fad93e8d1912U, 0xbe088150be148ac8U, 0x3ce58f44bbc1ffd8U,
  0xbdeea1223dd499a0U, 0x3e367b833e464c6bU, 0x3e0e591c3de19eb8U, 0x3e15599cbe56ab13U,
  0x3dbc2730bd67dbbbU, 0x3defb9483ebc5868U, 0xbdde30683e1227b4U, 0x3e26527a3d185f58U,
  0x3ebb101cbc4c4232U, 0x3df9aa5d3e07c195U, 0x3e259fecbc0dca6bU, 0x3d43a650be3c6975U,
  0xbe16ecf33e2b09a2U, 0x3b9074a63e30550eU, 0xbcd3bd74be2d886fU, 0xbd0c29413e160d9fU,
  0xbe1e72473dd36cc2U, 0xbe2a1fecbe008f88U, 0x3dafe69b3e02facaU, 0x3c2a5152be6f8707U,
  0xbe112a41bda03660U, 0xbd9810a2bec03c97U, 0x3dddb4343c50bfa6U, 0x3e0f42ff3cf64313U,
  0xbde231b93d97612bU, 0x3d901200bed495c7U, 0x3e2c1d3f3e887cdfU, 0x3e15f33fbe873086U,
  0xbe66ccdebd343095U, 0xbe4cee7dbd6330ccU, 0xbdc7ccf43e931bc3U, 0xbe32c236be2b71d1U,
  0xbdda14e33e53bcf5U, 0xbc8c186fbd380db7U, 0x3e6743453c9459cdU, 0x3e5661f6be1a392dU,
  0x3db4f2fe3bd4a674U, 0xbe3bc64a3dd5c2d6U, 0xbbedde6d3e111366U, 0x3e9613213d48e1fbU,
  0xbe0662423e12ac69U, 0x3e43ceb6be031722U, 0xbe3277303e5eb57dU, 0xbd81116abbd537e4U,
  0xbd8cd57b3e8fd705U, 0xbeb7eaf7bd9865f7U, 0x3e2a22063e08e3e7U, 0x3d537b50bca96827U,
  0xbdea21cf3dbdab46U, 0x3dd288563e0a1788U, 0x3a6f4b52bdb00c35U, 0x3e95712abe4fdc74U,
  0xbd0f3b703dee9d57U, 0xbe94a6463dd72cffU, 0xbe09eb263debd830U, 0x3e672b243df9d133U,
  0xbd65c9453c4b70eaU, 0x3e34d9813d196028U, 0x3d42bc99be83aab2U, 0x3e87c109bdc821b8U,
  0x3e1a21c13debbdb5U, 0xbc86ccbc3ea48ac1U, 0xbd41a9cbbdaa8e10U, 0x3e95e6c53ea3bfb7U,
  0x3e35802b3da075b8U, 0x3e27b9f33ea63cfcU, 0x3d917c9a3dbe8ccbU, 0xbe2aab9a3e311255U,
  0x3a4726ae3e3abc0bU, 0x3e2a9a1b3e8e481cU, 0x3ccc5ca1bdff726cU, 0x3e4721573c6c05d5U,
  0xbcaa35493e5cc2ceU, 0xbcd88c21bdde7a88U, 0x3dc1301abe230050U, 0xbdd2a67d3e8603dbU,
  0x3db3d5ff3e102352U, 0x3d9abddfbd0cd499U, 0xbdac0251be1b5ad8U, 0x3e75466c3d55e442U,
  0xbe05e5573ba8b04fU, 0xbc23f981bcac673fU, 0xbc6e176bbd721ea0U, 0xbccd5dc7be54e146U,
  0xbe1d60533d17e0a9U, 0x3e283548be27a4dcU, 0x3e10654bbd01c290U, 0x3ccb3e13be7693daU,
  0xbc85d8d23e20a425U, 0x3dfb0acdbe30b7ffU, 0x3e99e8643ecfb16bU, 0x3e8795c9be5706c6U,
  0x3e66f4e43e0d94a5U, 0xbe9153bbbe826d6cU, 0xbd996539be0bd2ceU, 0x3e8cd3c7be8d1dfbU,
  0xbdce9275bda824a7U, 0x3becf149be0ebdcaU, 0x3dcd6a6cbb81353cU, 0xbdcccd48bdad0138U,
  0xbd90d3013db47366U, 0xbda39f88bda716feU, 0x3e132a8a3cf94f10U, 0x3d1fb7263df2ff45U,
  0x3d882a553d87f497U, 0x3c8b0fcb3e0b07adU, 0xbd012d4e3e7dd903U, 0x3e0b6d883c998099U,
  0x3e5cba75bc8272f9U, 0x3e40200c3d84c6d6U, 0xbde22bfe3cc664aaU, 0x3cfbd208bc4ef9e7U,
  0x3df91a9e3e2924e4U, 0x3dccf3743e373dbeU, 0xbb4da77b3e117757U, 0x3e4c54993e057d1dU,
  0x3e3c772b3b10300cU, 0x3d3b1e543dc4cf42U, 0xbc8273f7bdbe79daU, 0x3c337597bd869002U,
  0x3cc397e93e585d23U, 0xbc4c24103d71c04bU, 0x3a6392e33e5381f7U, 0x3e40d3533dbd148dU,
  0x3e23a208bca795d2U, 0x3d9749c53dd9bb76U, 0xbd088feebcd282edU, 0x3de4a9383d712a05U,
  0x3d61a4db3e129c88U, 0xbcbee4bc3d221930U, 0xbe1d9e3d3e30786aU, 0x3e3288583d6158d3U,
  0x3e3c2714bd90ad5eU, 0x3cf0c95cbd11c000U, 0xbdc517293cd6620cU, 0x3d9a62d03d3c6db7U,
  0x3d1341c03dcb6d1fU, 0xbd82ac0e3e03931eU, 0x3d57b7b33ea83a89U, 0x3e52db1e3cff9c88U,
  0x3dba56883c427c50U, 0x3e0488353defc5b9U, 0xbc89a40dbe0b316dU, 0x3d3c49c33d43214bU,
  0xbd863b013e7d2ce6U, 0x3c6e83b73ce50299U, 0x3d1985f43e68d740U, 0x3e13bc593e268e30U,
  0x3e4c86bdbd14e869U, 0x3e3fba20bc05dd44U, 0xbdb30b993dcd1289U, 0xbce96902bccfa29dU,
  0x3d3a96ab3e61211dU, 0x3d7d79aa3dd01771U, 0xbccae75b3e6cdda1U, 0x3e5299613da244feU,
  0x3daaf058bd1db173U, 0x3e0374afbd4daa38U, 0x3cefa3053d1e6343U, 0xbd2755f63c5ed1f5U,
  0xbd5e2d573dff9644U, 0xbd46a51a3d4bdbbbU, 0xbdfa5bf23e706f71U, 0x3e38cb853d773b2aU,
  0x3daac60c3bd832a3U, 0x3ddcb5f53dbdf3fdU, 0xbdbe40063d02169bU, 0x3d3d5f35bdac8ddeU,
  0x3d80afbb3e3f7453U, 0xbd8e16e93e18a431U, 0xbe00b9273e083136U, 0x3dd9126c3dfdcd7aU,
  0x3e04a860bd17ae4dU, 0x3d090ffc3ddbdc80U, 0xba15da3c3d62c5b6U, 0x3c605efc3c3c36bfU,
  0x3da405d43de8bd57U, 0x3d0a67df3e23c0a9U, 0xbdc422573e9c8974U, 0x3e5d4a263cc10ab7U,
  0x3e05004bbdb99b25U, 0x3dfe1b7f3d75d0adU, 0x3c8660e6bd917371U, 0xbbaf11d23c603bc7U,
  0x3ba7fa253e0467e8U, 0xbdb5d8803df921aeU, 0x3db50e263dd1f602U, 0x3e4fe0093d9d39e4U,
  0x3e5828a2bdaec8bdU, 0x3e1df0623d6f4137U, 0xbd0e0a91bdd03584U, 0xbd4ac59dbc8ab0ceU,
  0x3d57ecf33e0c34c8U, 0x3d5ab0bc3dfcde74U, 0x3d56ad6f3e52b251U, 0x3e0a31aa3c5313afU,
  0x3d86f6aabd347cb8U, 0x3d2b26b03c048f85U, 0xbd947109bd095a11U, 0x3d876f8e3d2fde76U,
  0x3c490d493e683a38U, 0x3c10668f3cdea569U, 0xbc9502773e722a0fU, 0x3e0f0db53cc3b8daU,
  0x3e2d591ebd0c7162U, 0x3e06d9c73d0d83d7U, 0xbdb3e236bd0baed5U, 0xbd3acd683d69bb99U,
  0x3d7ca96e3def3e1cU, 0xbc0bef563dde8d5dU, 0x3ca7fd133dbf58bbU, 0x3e01aee83e1814d1U,
  0x3dc54520bde44b32U, 0x3d8213633c692ef9U, 0x3d0190d5bd7d1a33U, 0x3d571ae5bd9815b6U,
  0xbcc6f5d03e11edfdU, 0x3b8bf80d3e06a27cU, 0xbc89742a3e58cb87U, 0x3de586323de07f87U,
  0x3e181c753d653f73U, 0x3d8c4e9ebcfe439dU, 0xbd6b8272bd51cfd9U, 0x3c18a0cc3b4a3a6fU,
  0x3dc604c53e058f25U, 0x3d42a9513cbfac76U, 0x3d15c8803e8ac5f0U, 0x3e3454c03e11b33aU,
  0x3e191634bb9e73adU, 0x3e1ab8823ca2ffcfU, 0xbd9d987dbd1de217U, 0xbbd90d52bd58e489U,
  0x3d013fbc3e32a6d3U, 0xbd949e373e07a7f5U, 0xbdc43b9f3e71509fU, 0x3e2330813dc9d87dU,
  0x3e08c34abd71265cU, 0x3d9050b13de0668eU, 0xbb9b95ba3c478037U, 0x3d6e3869bd234bccU,
  0x3c9ed7c13dbab4f2U, 0xbd798e713d9437a3U, 0xbda67f2e3e0a6d26U, 0x3e09ca3d3d47cf6dU,
  0x3e36b59f3b410c74U, 0x3e3576c8bbdf09b9U, 0xbdb3e83bbd16a8a3U, 0x3d5f8027bbe30527U,
  0xbd10b07d3e0b0861U, 0x3dc14e713d654214U, 0xbc1396383e868fbdU, 0x3e480aa43cb102cdU,
  0x3db0352ebde43c01U, 0x3dd78d06bcc2274bU, 0xbd480ec1bd73bfa4U, 0x3caf287c3c612ae1U,
  0x3d3194273da3e469U, 0x3d8ba6c43da63d3dU, 0x3d241a463e7e2f92U, 0x3dc9dd113d98e8dfU,
  0x3e35c4483d073f84U, 0x3d8c3e623d42e50cU, 0xbc85b6a2bd79c838U, 0xbc638406bcd16e4fU,
  0x3dd4e96d3e00f1f3U, 0xbdbad4a63e212019U, 0xbd1334563decfaa1U, 0x3e41b1663d61fa54U,
  0x3d5d2a18bd284f01U, 0x3da559793dedfa38U, 0x3c9250aebdcdb1c2U, 0x3d6df1c0bd5a7e7cU,
  0x3cac86cf3e124499U, 0x3db9052b3d639ba9U, 0x3d1663403e1d7a22U, 0x3ddb9a4e3d96e121U,
  0x3e040885be0dc89aU, 0x3e1705c43dd86f26U, 0xbdf93443bbf259feU, 0x3c7956623d353201U,
  0x3d9b1e273dca1695U, 0xbdbac7b53dd0114dU, 0xbdb3f6ca3deb496eU, 0x3e113bb93d0d57e8U,
  0x3e0bc6e2bd90ac0dU, 0x3e1752523dc3b4d2U, 0xbe036510bd977726U, 0xbd8e1066bd7d80b4U,
  0x3b7adadd3e0e6f77U, 0x3d2ff7d83c857a4eU, 0x3d08894f3e49735eU, 0x3e1161993a234fdeU,
  0x3db45a8bbdfa8739U, 0x3d829c493db23443U, 0xbdca4f543cb9d093U, 0xbd67165bbd4b738bU,
  0xbc5a48103de1c1d3U, 0xbd72f8323e1cea87U, 0xbd6905823e12ff28U, 0x3e5a22a83d35885bU,
  0x3e2f68a3bd06584eU, 0x3e29cd8a3da2c286U, 0x3d46c6273d23e4dcU, 0x3df4fb063bbbdf78U,
  0x3d35f71e3cdbaf9fU, 0x3dac67ce3e1dfcdcU, 0xbdc8de123e652dafU, 0x3e11c71c3d8defa5U,
  0x3d53a33dbc985ecdU, 0x3e54b548bc398726U, 0x3c9b83bebd861c4aU, 0x3d0d6b093c0c44fbU,
  0xbcac819e3dfbd37cU, 0x3d78edc13e2a0c3dU, 0xbc6fba533e6adca9U, 0x3e458bad3d90a37fU,
  0x3e03e2b4bd071996U, 0x3dc761db3c184b6aU, 0xbdc1e278bd40b001U, 0x3caa5c07bda5104fU,
  0x3dea90283ddda071U, 0x3d19674e3e1d2d7bU, 0x3be6ff723db57957U, 0x3e2db98c3e056bb4U,
  0x3e10bb89bdd4249bU, 0x3dfe378a3d465700U, 0x3b1ee3ddbb0bf654U, 0x3cf77dcbbc91dd38U,
  0xbcecaacd3e551f38U, 0x3c9ae4723d08612aU, 0x3b02c9483dbd46e5U, 0x3e1d19a13d69e484U,
  0x3e10070dbc6f1a92U, 0x3d149e303da556eeU, 0xbd8a3c4a3d67f53dU, 0xbda467463b3913f2U,
  0x3c8870e33e2ccbd6U, 0x3d2622183e0d61e8U, 0xbc83d83d3e334ad9U, 0x3e1c2dc53d83d9e6U,
  0x3e121e0e3cc16e6fU, 0x3d4ce9143decc70bU, 0x3c81b76f3cd0a997U, 0x3c681f653bfb08afU,
  0x3dd8869a3e1fd86eU, 0x3c9fca783dc2d53dU, 0xbb2725f23db6181eU, 0x3e27393c3c58a7a3U,
  0x3e33a59f3d9b001dU, 0x3c79b7cc3d4a3ab7U, 0xbe001b683d9d45a5U, 0x3dfd15763ce06871U,
  0x3dc31cbd3d8eb8d8U, 0x3da4e46c3b08a38bU, 0xbcba0f023e55abfaU, 0x3dc7ae54bc12bc2aU,
  0x3e16c8f53da1bd79U, 0x3cbfa57a3d32cfedU, 0x3ceefce83d5ed53cU, 0x3d1b463fbd837f0fU,
  0xbcb8238e3df03457U, 0x3d7c7a433deeb423U, 0xbcdcad323dcf4598U, 0x3e333b773c969bfdU,
  0x3da797353ccb426dU, 0x3c847bf93b209314U, 0xbdc8dc8ebd20c7ceU, 0x3dd0a304bd9f8ba7U,
  0x3dd5c82f3e286624U, 0x3d80f6a2bc0e180bU, 0xbd98ab5b3e1079a4U, 0x3d297a643beb0298U,
  0x3e5144fbbd7cd09aU, 0x3d45e7243d1db546U, 0xbdd8a611bd21e959U, 0x3d9cf700be09387fU,
  0x3c2a1c963e2501abU, 0xbd08c446bcc25b5fU, 0x3d0c41e83e8ce622U, 0x3e0b65233daed923U,
  0x3e856f8b3be448feU, 0x3dddc4d03dca1badU, 0xbde93bb23c9651b3U, 0x3dc31286bcd864feU,
  0x3d4bf2b43e4e1d11U, 0x3de2dcb03dc01422U, 0x3c94bdf63e005ba3U, 0x3ddd59a73d9500acU,
  0x3e54bf29bdad91efU, 0x3c8884d33d976bc2U, 0xbe1876fb3c806b5fU, 0xbcf74797bcd1f10eU,
  0x3c8946473e2add1eU, 0x3dbfbf96bc8049f9U, 0x3cf1461a3e35e5e3U, 0x3e3b0c8fbcc81876U,
  0x3e3f05d6bd85a40aU, 0x3dcf94c53dca048fU, 0xbd5eb797bcdef789U, 0xbd3e68e8bda01adfU,
  0xbc6b28973e830521U, 0x3d88a856bcbac7ecU, 0xbbabf73a3e0b1cebU, 0x3e59fb173d6f0c10U,
  0x3e0ae36e3d889100U, 0x3d3961a3bd0ab83eU, 0xbdce1765bc1f4e57U, 0x3d56de3fbd31a081U,
  0x391e78943e76f0ebU, 0x3daced2ebd29b944U, 0x3d81e5343e7bbc24U, 0x3e78f2723df4d508U,
  0x3d8be5efbd8c22d9U, 0x3e06bae93d6c8603U, 0xbe0a165d3dafa6dcU, 0xbd405f29bdcc3b6fU,
  0x3d8dc01c3e1f8046U, 0xbc9123d1bbcd4757U, 0xbd0c20fe3e143930U, 0x3dbe58be3da71490U,
  0x3dde2570bd969029U, 0x3dbf29ddbb1f3053U, 0xbd316a49bd9602f5U, 0x3de03bb73c1ee0acU,
  0x3c0774f33e402a2fU, 0x3d49bcc43c15a399U, 0xbd9aaf363e83c5a1U, 0x3e566effbc8b8468U,
  0x3e051051bda4605dU, 0x3ce07f62bc95932fU, 0xbd9eea3d3d6fed30U, 0xbd2884b2bde9d4c3U,
  0x3dca8fa73dd14c94U, 0x3d4841d53de58bfcU, 0xbc374ff33e77ae24U, 0x3db940003d86a49dU,
  0x3e2d8ce1bc923e01U, 0x3a8846193d9bcd8aU, 0xbdb32c39bdb4bbd9U, 0x3d0f8454bc02e41cU,
  0x3ce07ba03d801796U, 0x3da18affbd040adaU, 0x3c2efada3e0307d7U, 0x3dc69f7239e29074U,
  0x3e44602cbc69079dU, 0x399d7bdc3daf2de0U, 0xbd2d3e2fbce443ceU, 0x3d8b3e48ba55b700U,
  0x3cc348e13d92b7adU, 0x3d818263bd400ab8U, 0xbdcb77383e669990U, 0x3e5a4200bccde2b7U,
  0x3e0ba7873d05ccabU, 0x3cbcbb163d9b0178U, 0xbdfb130cbd80d393U, 0x3d68f521bd22aca2U,
  0x3d7b42273d82d4a5U, 0x3d12813dbd24140cU, 0x3d6efd453e5ae699U, 0x3dd8f86bbca02bdbU,
  0x3e0a6a94bdad1d34U, 0x3daf82b3bccb54b3U, 0xbd7e148e3d08a942U, 0x3d1ab8cb3c2550e4U,
  0x3e08023c3df8116aU, 0x3c85a44cbd15c391U, 0x3d0a30963e3d3444U, 0x3e46cae03c4479d9U,
  0x3d9b056dbd26d017U, 0x3de1cba03c1f4734U, 0xbda65d4d3ca0503fU, 0xbbea0764bdd0f415U,
  0x3d06ce0e3dcc5115U, 0xbc1af4223da184b1U, 0x3d69c5783dccdee8U, 0x3e0a1810bc838484U,
  0x3e322f57bd98b1bbU, 0x3d3ac3ed3db8bc5bU, 0xbd5cc69fbe014160U, 0x3cfd8095bcf82daaU,
  0x3db5f0fb3e23ffa9U, 0x3cbb184dbd219f2bU, 0x3dbe83773e02f5a6U, 0x3e18333a3d043f5aU,
  0x3e589e3a3cd79135U, 0x3d938ef93d3711bdU, 0xbd49000ebc76b66aU, 0x3dc3e1a0bc96eaa4U,
  0x3c8f4b093e5a55daU, 0xbcf559b93ce03a1dU, 0x3ce0527c3e3c1d6fU, 0x3d935bed3cfd1beaU,
  0x3e0323443cb13176U, 0xbc1583dabaadad14U, 0xbd2ede1d3d6b2037U, 0x3df95d47bd709c52U,
  0x3dac93fa3e2616f9U, 0xbbf0957c3cf50120U, 0xbd814ccf3e7f9af1U, 0x3e4a46ecbccd4184U,
  0x3e25e9903c8ce6a0U, 0x3dc6f4e63dd1ff29U, 0xbdb8f0abbd26d6f2U, 0xbcee9fdebdab5212U,
  0x3dced9f63dcfe723U, 0x3cfed68a3d95b602U, 0xbd7045963e7951aaU, 0x3e54f8ed3d42e898U,
  0x3e672d2abd695c86U, 0x3e100fac3df9cff1U, 0xbe192a74bd920559U, 0xbc1c5be4bdc81583U,
  0xbd8a59453dc00328U, 0xbd5b08f43d218e69U, 0x3c8976d83dfd34faU, 0x3e1d3a8bbd0da94aU,
  0x3e401f64bdde1aadU, 0x3d1cefc43c24bdb0U, 0xbe14881abdabfb80U, 0x3da3857dbd14d078U,
  0xbd0acda73e5764afU, 0x3cecb8cabd0be4bbU, 0xbde54e9f3e77bc45U, 0x3e1fef00bd4191feU,
  0x3df98040bdcb4d21U, 0xbcb0f324bca7a754U, 0xbddde2f13d2c76adU, 0x3d2e4743bbc49297U,
  0xbd13cf353e6d0151U, 0xbd003d39bc57ad4dU, 0x3cbcba403e1451b5U, 0x3e5783db3d0a0fc1U,
  0x3e47c86f3c84a6a2U, 0x3d91e1ba3dcfb3c8U, 0xbdeff2843d5f2bd7U, 0x3d70ebe2bd9ad60cU,
  0x3c5cb2053e351ad3U, 0x3de847343c6ca2b4U, 0x3d54599e3e8947bcU, 0x3e0353c4bcec0ab9U,
  0x3dbe6e8dbcf4ec52U, 0x3cac48c73d8998a8U, 0xbdcc5b5c3d95b405U, 0x3d84e2063bb9e686U,
  0x3dcb0e723e8179d9U, 0x3caf5ec23dbe822cU, 0x3dcc3a5e3e588141U, 0x3e32f5163dfe38a9U,
  0x3e1aed99bc4d1720U, 0x3df514a83d2f8398U, 0xbdea9bfd3de07a96U, 0x3da9d917bd0eb2f2U,
  0x3dbb0fed3e30bd75U, 0xbd545eb33ce33ae2U, 0xbd697cb43e85b4b3U, 0x3d5dacc53d9daef1U,
  0x3e4b140e3c270bd7U, 0xbcf720f73db167b4U, 0xbd63d7ff3d500d5fU, 0x3d8d51a8bc2f0c3cU,
  0x3c5c99503de0a399U, 0x3d5a5e443c82c8beU, 0xbdaf04c83e626138U, 0x3d5530883cfe7c2eU,
  0x3e183debbb86f266U, 0x3d242fe83e068001U, 0xbd9b55bcbd3e36c8U, 0x3c840c9fbdd2eacdU,
  0x3d97a2fc3df674a0U, 0x3dde2a123da3a2f2U, 0xbda315dc3e0e24a1U, 0x3e00c210bc4808daU,
  0x3e2f243bbd5bf9a2U, 0x3dc362cfbc4767b3U, 0x3d0952f7bce6b9e9U, 0x3dd0fd32bd5628afU,
  0x3dd108b53d11118bU, 0x3d8c6e9ebb9bcbadU, 0xbd6b60093e933b43U, 0x3ddd53ec3c9b698bU,
  0x3dbdbc5d3bc018d4U, 0x3c72f2d43db6a2dbU, 0xbde88034bc2da4edU, 0xbc161ef5bdd01901U,
  0x3d4346ab3e1a05ebU, 0x3d430e963d89f5e7U, 0x3d1356183e47075fU, 0x3e12aac43d8db52fU,
  0x3db7a0d4bd35041cU, 0x3ae34fc63d9b7ef2U, 0xbdef9eabbdb623e8U, 0x3d62edac3d02eea2U,
  0x3d3e360cbe0d68cbU, 0xbc964c8abcd49609U, 0x3d21a0d2be11bd33U, 0x3db77438bd412f73U,
  0xbdb49a38bcc76538U, 0x3d7592913ce4229fU, 0x3cdc7d0e3de16358U, 0xbce5f95e3c073324U,
  0x3decefab3c65333cU, 0x3dad170e3cae0dccU, 0x3d0ea920bcdcd669U, 0x3dd4b120bd1d65a1U,
  0xbcc38d8e3d589f20U, 0xbd31c9e7bbc8b8a9U, 0xbd24cd053d67f563U, 0xbc5cf7843dae0444U,
  0xbcfc85dabd9f526fU, 0x3ddefaa8bdcce53eU, 0x3dd0eda3be1ae9b8U, 0x3dcb48d6bdcaa098U,
  0x3c77347a3dac9362U, 0xbb10eacc3bd69e4eU, 0x3d039ef13e10debeU, 0xbca3e15fbc96c2f7U,
  0x3d5bc61c3c76165aU, 0xbd21ade0bda548f9U, 0x3c884e6f3d8d345bU, 0x3d4f82e13cc97c9fU,
  0xbd75d60d3da9791dU, 0xbd58e38ebd0afc46U, 0xbc2cf4993d12a552U, 0xbd60b0d83c976c6aU,
  0xbd87cb40bdad7ba4U, 0xbc9ff8e5bd994934U, 0x3c8d67153c575da2U, 0x3c3ff5c5bd9c644fU,
  0x3cd74291bd654910U, 0xbd55a0653d63cc18U, 0x3cd876393dd0fb26U, 0xbdb98f543d453f43U,
  0xbd982f2dbcbe202bU, 0x3ca4e8f6bcf45a02U, 0x3e1317d1be5ed653U, 0x3d1a59eabdb3cf65U,
  0xbd9b6f6c3a9507afU, 0xbcfd2817bddd0658U, 0xbcac38ef3df448aaU, 0xbc9c4adabcac85efU,
  0x3d8e1f34bd30dd54U, 0xbd06a3a6be06ed9fU, 0x3d2f74f039c16ab8U, 0x3d4d89e8be0d58e6U,
  0xbd44cfc03d8467a5U, 0xbdd5c924bce7916fU, 0x3dcf39c13d27fb67U, 0xbd64db673d5bb106U,
  0xbdae9d90bb6f7469U, 0x3cd65237bd4d3a98U, 0xbde22024bcb88c45U, 0x3df4c5a3bd34646aU,
  0xbd010870bcea9477U, 0xbd87b1be3dc3a644U, 0x3be02fa13d89a20eU, 0x3cdf466bbbf987e9U,
  0xbc6c9773bdb6f499U, 0x3c8c3332bda76649U, 0xbd8aa7953d07caa8U, 0x3db5afe4bd7739ffU,
  0xbc79dbd13d6dfcb0U, 0xbe0d0f9abcd346d0U, 0xbbef8b163d337fa9U, 0x3cb0aaec3d751c39U,
  0x3d4619abbd448238U, 0x3d728485bde003d2U, 0xbcb543e53d3d1db7U, 0x3cfc253c3d5906f8U,
  0xbd8a2f6d3d3ccfe3U, 0xbdb29ed23d9c8dfeU, 0x3d02ca14bb761a6eU, 0x3d8812f8bd5bc075U,
  0x3b1bb4483d42be7fU, 0x3dd17c33bdf1f608U, 0xbb4fdf2f3dc1a8f2U, 0xbd8f6b7cbd1bcbddU,
  0x3e02a50a3dbe6411U, 0xbd0e2ac6bc700c0fU, 0x3dc06ca13cf9f91dU, 0xbd09dbaf3c384755U,
  0x3c2a8fcb3d500037U, 0x3d7013463b0ea5bcU, 0xbd4b5a85bd97c235U, 0xbc8204c7bca04127U,
  0xbd2ab33a3d3a73d4U, 0xbd182d1e3d604987U, 0xbd10de793d92622bU, 0x3d29e69ebd9c266cU,
  0x3e205b973d74531fU, 0x3d340ff8bbb99c1fU, 0x3ccce2d83d411b8cU, 0x3bbe943c3d422a52U,
  0x3cd7723b3c810255U, 0xbd55bbb73c698fffU, 0xbd1e80403d04f3efU, 0xba522a7f3d01b756U,
  0x3cd50fdcbd874b2dU, 0xbd0a531c3a12b9efU, 0x3df9cc0fbd217412U, 0x3d936c75bd07327fU,
  0xbe367e6fbcec6db1U, 0xbd6ff2fe3d2a20fcU, 0xbc95934f3d00e70cU, 0x3bbdd1a6bcd2f924U,
  0x3ce8c9dabcb5b26dU, 0x3c58cda3bce456bcU, 0x3b8b2175bd222a2fU, 0xbdf44806bd36baaeU,
  0xbc82f2583ce2402eU, 0xbd04f4fd3ae33b3eU, 0x3de4a6f13e1cfe01U, 0xbdaf15b9bd0714f2U,
  0x3ae256433d99dce2U, 0x3d914dd1be0e59f6U, 0x3d6a0b4ebd2b9181U, 0x3ca9c415be0eb1c1U,
  0x3d57e87b3e0d1f4dU, 0xbdf9ff39bd382a0dU, 0xbd9ff2b33d8ab841U, 0x3c89c605bc13ef90U,
  0x3c1f6d32bd4b9a61U, 0x3d3739ffbda7e1e5U, 0x3bbbeb51bde3b184U, 0x3d1b1cf1bdb703ebU,
  0xbd7b7dde3d91f7faU, 0xbca4fa603dcba970U, 0x3d22fead3d82fd17U, 0x3d86d296bd1a9748U,
  0x3d00814f3cbff60dU, 0xbccbfd36bdc6f56aU, 0xbc7fb7de3db3cca5U, 0x3de37764bdc92ef0U,
  0xbdbe3bd63d760e47U, 0xbd204fa43c0c641cU, 0xbb774aad3dacea3dU, 0xbbcd375dbd2733d8U,
  0x3cff59d2bc65fe2dU, 0xbc9dc5dfbb3db1deU, 0x3c59c57cbe05549dU, 0x3d587175bc51cbf6U,
  0xbdc33732bdca65fcU, 0xbd863b6c3c30a84fU, 0xbd851cd23de94f5fU, 0x3cb08ec3bd853ee9U,
  0x3e07589a3dbcd37aU, 0x3c31abafbde8b4e5U, 0x3cd7dc5b3c7f6880U, 0x3c706411bd869072U,
  0x3cbbb7a03cec6770U, 0x3d034bc03c96115bU, 0xbc6334763d200097U, 0xbba912a43c8798adU,
  0x3c5be770bd1e5f8eU, 0xbd083493bd0d84d8U, 0x3d912b503d453592U, 0x3e597e6cbe12bb6eU,
  0xbccc031e3daf6e52U, 0x3d31bb2a3c8a108dU, 0xbd032cae3db56451U, 0xbd9426b0bcfdcbbfU,
  0x3d411f5bbda6312eU, 0x3dbdc1d83c2f0415U, 0x3ddb17dfbde620ccU, 0x3ddac3b9bd263fa9U,
  0xbddfcafa3c35ca87U, 0xbdc524973cc4df20U, 0xbc4607d43e27045fU, 0x3d2f0de43cb5f679U,
  0xbd153c52bc2fef51U, 0x3c67662fbd40d937U, 0xbcb1c85f3cf99bc9U, 0x3c08792ebdf3212bU,
  0xbdd7948dbc2ad278U, 0x3cf114943dbd7979U, 0x3d4e471dbd887f97U, 0xbdfe442b3c82edeeU,
  0xbcce8f61bd907a42U, 0x3e244b5cbd908662U, 0x3e04bb0e3c81581aU, 0x3cc40575bc7b0725U,
  0x3dc473b43d7d60abU, 0xbc7b5844bd4baeadU, 0xbcc2b7d43dda2492U, 0x3d7c67c13cb676d7U,
  0x3c97eb6d3ca73782U, 0x3d10d1febdc8b789U, 0x3dc14c37bcd2ef18U, 0x3db3fa973be34c16U,
  0xbd8df5d7bd6bfc2cU, 0xbdcdf3c93cbeafaeU, 0x3d89e2763d09ac11U, 0x3e0a8aea3d9a470aU,
  0xbd4dedde3c5eccc4U, 0xbb1c1337be04dc07U, 0x3d9e91a1bdcef2b0U, 0x3d899cc8bd6cfd03U,
  0xbd8904973dbe80b3U, 0xbd59171eba9616f1U, 0xbd9d383a3d63bdfaU, 0x3b813068bd22eb9fU,
  0x3dd76ce6bdfd9f03U, 0xbc8c48dbbd5e139eU, 0x3e1d6f73bd4c6ec3U, 0x3d835a6bbe1457baU,
  0x3bf262de3b024222U, 0xbd80b723bc53015dU, 0xbdb7d68b3dda0bd4U, 0xbd26b7a1bcae0f41U,
  0x3d460ba6bd3908d9U, 0x3dad4897bcf63a90U, 0x3e048a6bbe122124U, 0x3df538b8bdc9afbfU,
  0xbe31d5793b075a91U, 0xbe2b4f12bccfe998U, 0x3d07e9cc3da88da4U, 0xbd8326e73d8e52efU,
  0xbd07457dbc3271e0U, 0x3de24973bc6d49cdU, 0x3d0ee151bdc26297U, 0xbd11b5c93c8db888U,
  0xbcb975eb3d120b63U, 0x3ce0b804bc32e7e0U, 0x3d8470003df9e9f3U, 0xbca6f94c3cbf4ef3U,
  0x3cdf744e3d88c021U, 0x3ca132b93cd1d771U, 0x3b8329883cc6e690U, 0x3e2b7ba83dd04d67U,
  0x3d66c3313db5e50fU, 0xbced3737bd55730dU, 0x3cad7de13bbebe61U, 0x3d5689243c1a003aU,
  0x3d12a942bda32b47U, 0xbccf84853d755340U, 0x3e0672cb3d8be9e3U, 0x3dad89b2bc7305c9U,
  0x3cbca5ccbc98a04dU, 0xbc6977993da27171U, 0x3ccfbc023d907897U, 0xbd09f8523d1ad0c6U,
  0x3db0773dbd90d1b8U, 0xbc9f75d73c57acdbU, 0x3d87c8dabd36bd59U, 0x3df4f08fbc03e8a2U,
  0xbe40269a3d39dc8cU, 0xbd80eb643e1fd1e8U, 0x3d11697dbd86e545U, 0xbd6e3b1d3e2244e0U,
  0x3d10e1f3bd723ed2U, 0x3e0995813bea08f6U, 0xbc8a8dd9bd6a5215U, 0x3c1bd12c3da50785U,
  0x3dc17fa0bcacff83U, 0xbd03ffedba3d0e84U, 0x3ca958963d23ebb8U, 0xbd4212d83d843d91U,
  0x3d9e1643bd8a0bd2U, 0x3dba8a47bc3a9613U, 0xbb8287fabb2c659cU, 0x3d3c0a503dc6e506U,
  0xbda74cb83dd0567dU, 0x3e1dbaaebcee6df3U, 0x3dcb1f2ebbe93080U, 0xbbda210a3ae8cc48U,
  0x3d10b0c0bd6e77f5U, 0xbd1b113a3e14c01bU, 0x3c04f1b03c642789U, 0x3dfc98c83dd79a4eU,
  0x3ca185853d4523c3U, 0x3ce642083e09e558U, 0x3d48da9ebd04f66aU, 0xbd1116643dcdbb7cU,
  0x3e272d12bd34c387U, 0x3d8b6de33cc63f4eU, 0x3d8e35bdbd35abb2U, 0xbc207aa0bd97ea44U,
  0xbe168c173d34e61dU, 0x3d807aaa3e1346e5U, 0x3c70b12c3a8ddb3fU, 0x3d01e5fc3df5ef1dU,
  0x3df5733abd71245fU, 0x3cc8388f3cd8c7b2U, 0xbc02c2b9bdefb223U, 0xbc7ba264bd5c91abU,
  0xbc00e5ce3d9cffceU, 0x3cf9104ebbca94acU, 0x3dbfa3863da96cc9U, 0x3d2ea9a03de6f7f9U,
  0x3dd662c4bd4c5f54U, 0x3e11094a3e0b1a39U, 0xbbab3f9ebdc6476eU, 0x3d08396dbd13d935U,
  0xbd5081b13da67cfbU, 0x3e06a1b63d2f79e0U, 0x3dd5eee63c6357e6U, 0xbd8db0683d4b8cd8U,
  0x3d08b852bd8b77b0U, 0x3da9dd1cbba19467U, 0x3c341b9bbd0b5144U, 0xbc8fc8f03dedcfb3U,
  0xbdec7edabc384739U, 0x3d9dec613e14b595U, 0x3c8fdb2d3ccbc4ecU, 0xbd58d16a3e034f9dU,
  0x3d986e99bdf95bd2U, 0x3cddff67bc877179U, 0x3d89400cbdaf74ddU, 0xbd0081053b96c73cU,
  0x3dba2eb53ca007ceU, 0x3d9a95e63dc7f4b7U, 0x3d7245213d64f44bU, 0x3d5f446c3de113f3U,
  0x3c9c9505bdfc86f7U, 0x3c91fe5a3d1767c4U, 0x3bfa19563e202962U, 0x3e2089863a3fd9cdU,
  0xbd0c704b3c545969U, 0x3d7ea9013db38a5eU, 0x3c929721bbb9729fU, 0xbc571a8ebd1e08a5U,
  0xbb19723fbd868210U, 0x3d7e2e6c3de71ef4U, 0xbd80078dbd133938U, 0x3ddd37213d5f61a5U,
  0xbd9d5225bd5f3f1fU, 0xbd4e37223c3537d8U, 0x3cccac2f3ca6aaeaU, 0xbcae78803d543977U,
  0xbd6444edbddec49eU, 0x3bce996abcd7acb8U, 0xb75346a0be0c9505U, 0x3b80933f3dc00d70U,
  0xbe17f80c3d2aa471U, 0xbb9c90c03d851946U, 0x3d838fd4bbb3451fU, 0xbce9b9093d7437a0U,
  0xbc912c9dbddddfdaU, 0xbce75b093c73bb2bU, 0xbdab156f3d91a62cU, 0x3e0218273c6293b0U,
  0xbd92e0db3de129acU, 0x3e0fc1593d6f9847U, 0xbcd024fb3db1283dU, 0x3cfa9e223ac6c09bU,
  0x3c8ba612be46a427U, 0x3c7727d9bc7392b7U, 0x3e152b84bc018959U, 0x3c8635983cd7ec9aU,
  0x3bd5a8843d3f6763U, 0x3dda8af03a9c3359U, 0xbb52bbcc3d6844bdU, 0x3d07138d3d2b5d40U,
  0x3e06ad2c3d7870fbU, 0x3da22f133d79a961U, 0x3c7c10cbbc617d96U, 0x3e06a0313d8bcb9bU,
  0x3ab77b3e3d4396d5U, 0x3dabb6f83bc40a33U, 0x3da15ad53ca78b3bU, 0x3c87a29b3d8373b1U,
  0xbcc09150bdabaf4eU, 0xbd71b8e73dce0f8aU, 0x3d6f1b11be773df0U, 0x3e11c00abd2700b1U,
  0xbc9c65de3d5462daU, 0x3db848b53d89fd0fU, 0x3dbfdf0d3db6882bU, 0x3b1165503d7e9a89U,
  0x3d7a5afabd7f4f93U, 0x3d72c7d73df24e46U, 0x3bde53f6bc523f24U, 0x3cd0b5a73c320644U,
  0xbdd5b8653db2e201U, 0xbd3c8264bbcb5892U, 0x3d6157e13da557ceU, 0x3c17c9743dec41afU,
  0x3d1d198dbd998608U, 0x3d957cef3db20349U, 0xbd25145dbcb61e49U, 0x3d88bd933d8ee3f8U,
  0xbdef8c80bcb0499eU, 0xbd6f127fbc6200d3U, 0x3dc7c2733d0579fdU, 0x3d0d1eaa3e079532U,
  0xbd919419bd934d96U, 0x3d83df3a3cabf887U, 0x3d65c95b3da13a84U, 0x3d8faf843cf328ddU,
  0x3bbd4d0c3e04e686U, 0x3d1825883d1a2e73U, 0x3d2bc02d3c0b8dcfU, 0x3d5d2ba83df3f966U,
  0x3e32eeb6be1a04a1U, 0x3e0633533da4763dU, 0xbc7b24ae3c617f90U, 0x3e06dc09bd0aa902U,
  0xbdc921513db2728aU, 0x3ce9bcf33de25f2fU, 0xb9a20af8bcbf728dU, 0xbd00e9793ddf86e8U,
  0xbd2b5ab4be1c003fU, 0x3b755344bd303235U, 0xbc0a167cbcef2791U, 0x3c88eaacbdb33446U,
  0xbdd14312bb3f7515U, 0x3c0be3593bcf371fU, 0x3daaac6e3db36d54U, 0xbdba7f2b3d558386U,
  0x3d780098bc2a7760U, 0xbcda7371bbbb129dU, 0xbd451614bc5515dfU, 0x3e1c4817bcd73e61U,
  0xbdb49ab23c2b653eU, 0xbd1b5b6cbca0616eU, 0x3d99ab9a3dcbbe50U, 0xbcac05363da9179dU,
  0x3d82c31bbc50a011U, 0x3c8fdbe53dc2d980U, 0xbca6b175bdcb5575U, 0x3e10259dbd3daa41U,
  0xbd2245a9bd51cb08U, 0xbce0aab5bc5e1aa7U, 0x3db1f1fe3c8afeefU, 0x3d25c65c3dcf7315U,
  0x3b4afd13bdb61a00U, 0x3e0716dcbc43f97dU, 0xbbbde35e3da9d0f3U, 0x3cdf0eb93cffe72fU,
  0xbdbd78dabd174eebU, 0xbcb02e373d95adc0U, 0x3d91b4863dcc882aU, 0x3d8b0da6bc280acfU,
  0xbcf87688be2aa2b8U, 0x3c988e983d3058caU, 0x3cac4aefbc89e1dcU, 0x3c44aafa3d8c31a3U,
  0xbd85d58b3cfefdafU, 0xbc31a7f5bc00856fU, 0x3cc7c7463d16033bU, 0xbdabe14a3d954d17U,
  0x3de9d4f6bdc51b30U, 0x3da1304a3d9ab473U, 0xbd5be8e6bc593cb1U, 0xbc64ca143c9277f0U,
  0xbc76ee323d9febbcU, 0xbd5e68a0bd36dd33U, 0x3cfd00bbbd3f5807U, 0xbc21b9ff3d968003U,
  0xbd2018c9bda0d21bU, 0x3e0f1d7a3d2e8cb1U, 0x3cd24ae2be1468dbU, 0x3d60b7cc3c929fe4U,
  0xbdd3c8703c5ab4abU, 0x3de38c2a3da3a716U, 0xbd3ddc423de2a789U, 0xbd4d21fcbb366552U,
  0x3c24b776be087b6dU, 0x3de0122f3d8cfa77U, 0xbdb7433cbcdcce53U, 0x3cc69d153d2cc7e5U,
  0x3d6209af3dbf4e32U, 0x3cbcded93e044558U, 0x3cb056cb3d4d95ccU, 0xbca7a5ff3dd4aec2U,
  0x3ad27c0fbd3ea7c0U, 0x3d9a5c273d22b95eU, 0xbd07ad933d22354fU, 0x3cb543353dd7b731U,
  0xbdde6e643d9343e8U, 0xbd0015073cff39c4U, 0x3db207a33d70ababU, 0x3c2ec7183c84a6eeU,
  0x3d4e4849bdc968abU, 0x3d748b0c3d86de28U, 0x3bbeb24abd258a6fU, 0x3d558192b8a4fae6U,
  0xbd5c98e0bbf1840bU, 0x3c38f2093dfca03bU, 0x3d3846d0bd533efaU, 0x3d2c5b21bcc563c4U,
  0xbd9040c2bcee4cc5U, 0x3db73c5b3c828afeU, 0x3df09721bde956acU, 0xbe229e71bd2a4c8dU,
  0xbddb9a173db8e60eU, 0x3c0ae51f3a8b3b22U, 0x3d5029643db4e715U, 0x3e077023bb90bbedU,
  0x3d369219bd7d61d5U, 0xbcc723f33b9250a6U, 0x3d9693b3be197398U, 0xbdea3d313ce2a53eU,
  0xbd4f46a23da81345U, 0xbb1fbbfbbd5c3cc7U, 0x3dbc84fd3d276f50U, 0x3de9074dbd7b9a81U,
  0xbd554045bdb3101cU, 0x3cfd0fe43c2b32e6U, 0x3e0766b5bdfdaf4bU, 0xbdc48fc83d161981U,
  0xbd0a40b23d7bc4aeU, 0xbd4a6e4b3c7163b9U, 0x3d9f5c2cbd00293dU, 0xbcc77f2cbca39dfcU,
  0xbc218a2a3d32e3efU, 0x3e180f5dba82bb07U, 0x3dca5e1ebe296160U, 0xbdbfcca3bdbc7ba2U,
  0xbe21948d3ddcb0faU, 0xbddbe9d1bc97e7a0U, 0x3deef0ed3dbe0291U, 0x3d4f413ebc1e2f62U,
  0xbdc2a8b0bd8bb67eU, 0x3d139da7bd555949U, 0x3caa0943be2e7d64U, 0xbdcb21a3bc2dbcd6U,
  0xbe2ba99b3d11d708U, 0xbda0c7d5bdb215afU, 0x3e03e1243d241ba5U, 0x3c0d056ebd29508bU,
  0x3da024ebbd832057U, 0xbc1163e3be002c89U, 0x3c468589bdf22b57U, 0xbd556487bd321687U,
  0xbddb62c43d808840U, 0xbdbc1928bd61c168U, 0x3dbcddb7bcf321f6U, 0x3d24853dbc2960dfU,
  0xbdf7caeebdb24dc2U, 0xbafb68f6bcbaba34U, 0xbd28eff1bd7775beU, 0xbd82bc4fbd7f39d1U,
  0xbe1904fdbca3d322U, 0xbc1d8933bd93b9e5U, 0xbcf313463d94563fU, 0x3e0d62afbcfde74dU,
  0x3d4581f5be12d2aeU, 0x3d2012c8bdc2f6aeU, 0x3d99e175bdb4af24U, 0xbe0c96f5bdb8d03fU,
  0xbc8348523cc9ecb2U, 0x3bf4c0ecbd163519U, 0x39c80b543d757236U, 0x3d0881423e0b15dfU,
  0xbdb565b6ba994792U, 0x3e1dc83d3d7b0633U, 0x3cf7bd74bdbb1ffbU, 0xbce556c2bcba01e2U,
  0xbda6e4233d77449eU, 0x3d2becb1bd25a4aeU, 0xbc9879c83da23d89U, 0x3d434da13bd7aabfU,
  0x3d8a6329bd632f75U, 0x3d71088c39cf14caU, 0x3db65aa2bd963f28U, 0xbe2c3ee83da3588fU,
  0xbbc09ec6baf048afU, 0x3cba7cc9bcb08886U, 0x3d37fb1c3e05b34fU, 0x3dcdc6f23d5caa06U,
  0xbd4df2783cd49010U, 0x3c80ffe9bdbccd0fU, 0x3c7d65b2be0edce0U, 0xbd9c67ff3cfba52fU,
  0xbbecb76e3dbf3bd0U, 0xbc36c4b8bd60c9a3U, 0x3dca31db3dbf3198U, 0x3d18ad1abc276c9dU,
  0xbd0d4f09bd3069c0U, 0x3dd5b9abbde4630eU, 0xbd045259be09cf5bU, 0xbe09885fbcfe3fc9U,
  0xbde210da3d92b4a2U, 0xbb1a8119bcaf8f98U, 0x3d37e8a43d700748U, 0x3e0678d8bb1649eaU,
  0xbbe8e4743cb76e10U, 0xbbca6bee3cd9b4dcU, 0x3da3ccd8bd911484U, 0xbd4b28763c184f6eU,
  0xbd9b2c703c094072U, 0xbdb8b3b93c84fc72U, 0x3dcd9d5a3d0aebbcU, 0xba9b0d343d69cd94U,
  0xbd742b163b896496U, 0xbd1f05203b5d592eU, 0x3caf9743bccf8659U, 0xbde8eac7bd90499fU,
  0xbd5df5e23e039a6dU, 0xbdf9e383bdacafa0U, 0x3dba64aa3d829f89U, 0x3da9d1913c31965bU,
  0xbd9306273d1da571U, 0x3d42c831bc8a47bfU, 0x3ca4eca3be00ab82U, 0xbcfcbefcbd5fe56dU,
  0xbda9fd803d95b06eU, 0x3c408af3bc2912c9U, 0x3d897d5f3b5e95b5U, 0x3d2f23c23ce3e67aU,
  0xbd38402cbd5f6126U, 0xbd6a5b47bdcdce08U, 0x3cae14bbbe4671d5U, 0xbd8c0702bdafb815U,
  0xbe1b97f53d63aa83U, 0xbdcb98f63c7725f4U, 0x3dded2d23de88e2fU, 0x3d8adfc8bd7a85faU,
  0xbd84f87f3c9c81fbU, 0x3d820cc7be200d51U, 0x3d02569cbdb64f7aU, 0xbd30bfe6bbdefc8dU,
  0xbdca09be3d8b3436U, 0xbd4549043ce5f384U, 0x3d6909683d110592U, 0xbcdf22ffbd0b5387U,
  0xbd8b6e04bd686405U, 0x3d9e2e37bdcd17d1U, 0xbc885567be2ad2ceU, 0xbd7809abbd0d56c9U,
  0xbdd00dd43e18673cU, 0xbe19db6abbf1e5f8U, 0x3da3f6303d996437U, 0x3da94bc53c20c398U,
  0xbc0418fabd86bd25U, 0xbd46fa86bd092335U, 0x3dd08127be42cea2U, 0xbc7e853f3ca4211aU,
  0xbd68ec113ce9d05eU, 0x3bef704cbd709cb3U, 0x3daa63383da592c4U, 0x3cfa8f973d8183f8U,
  0xbd8723cabc573784U, 0x3da3dc823d54a344U, 0x3db6b15cbe33cad2U, 0xbbdf4df0bdab816dU,
  0xbd4e77bb3dba7a6eU, 0x3b68f60fbd89feb9U, 0x3ccd9503bc69e7e9U, 0x3d90b0673d46f698U,
  0x3cc77d3ebd0c0b80U, 0xbb8e1462bd42040eU, 0x3bc3a299be3e2fb7U, 0xbd2356abbd0692aaU,
  0xbdb045483e03a2abU, 0xbdafb5f8bd1260c5U, 0x3ddb00013de35802U, 0x3ca1dc633d9559a0U,
  0x3d5bc78bbdc6c970U, 0x3d9c5fb8bd398874U, 0x3df550c6bdef911bU, 0x3c6deb553d7fbbc1U,
  0xbddeae173d25a482U, 0x3c71c29b3bee57ceU, 0x3e03e4edbc254699U, 0x3d743d383daa9f7dU,
  0x3d1409263c4a66beU, 0x3d823e82bd984a60U, 0x3d6dd9c4bdc679d8U, 0xbd46b10f3cdf6809U,
  0x3c39aa333def927eU, 0x3ce3a470bdc601c8U, 0x3d89d2883d97209aU, 0x3da2377fbcc4d02cU,
  0xbcb5f0383b97a903U, 0x3db58cecbdf3e07dU, 0x3de936b3be31e71eU, 0xbe1571fd3c91ab05U,
  0xbda41d2c3da028d6U, 0xbcf26ad73c87f458U, 0x3d2ab0fc3dcaf046U, 0x3d330542bbd1bdc4U,
  0xbdd659f8bd12e39aU, 0x3d223d94be005aeaU, 0x3dab39a6be2f5175U, 0xbe1d0b3d3a3683cbU,
  0xbc23af763dc9671eU, 0xbc27e7dbbdd97411U, 0x3d3304eebcb491dcU, 0x3d4402de3cfe08afU,
  0xbd897ca13dfd3f80U, 0xbd34a274bca8f92fU, 0x3de792d5be722ccdU, 0xbdad0603bd7f7261U,
  0xbbabb3643dfa3745U, 0xbda93856bcdd389eU, 0x3d73965d3d45bb69U, 0x3b064d9fbcf8e846U,
  0xbd9a96a4bda9e416U, 0xbcbf5315bcce66a7U, 0xbc8e9865be3cb3a6U, 0xbd7f9276bcc7878dU,
  0xbdc681923cc0f2baU, 0xbc88813abcf67eebU, 0x3e025d833d7b323bU, 0x3cc563843cd3adc5U,
  0xbd04653ebdaef505U, 0x3c525b8abdcca651U, 0x3d7c8946bdc873bdU, 0xbe1ad293bd1559dbU,
  0xbddbab233dfe9794U, 0xbd3c1bf4bdd8cfc4U, 0x3dd5c0f23d91167fU, 0x3c2781e63d4f2551U,
  0xbbaddc50bd328468U, 0x3cefcf79bd95ee9bU, 0xbce3c1a1bd0c964eU, 0xbc09c4a43bb3c19fU,
  0xbd5c07403d0d4228U, 0x3c5a3d953ca7af3bU, 0x3d4f2248bc028b0eU, 0x3d91a9c03dc48b90U,
  0xbd04913fbd938a9cU, 0x3dda71b5bbdf33e9U, 0x3bae4666bd6f9e5eU, 0xbdd7ed9fbba61872U,
  0xbdfb8cb03d8ce963U, 0x3ba7fc3fbc9d5cd3U, 0x3a7833ee3d488ca7U, 0x3e3d3c653df693f0U,
  0xbd605a59bda3cc97U, 0xbc51b293bc4b6b61U, 0x3cf0fe85bd11cadeU, 0xbdd9b1bfbdcca81cU,
  0xbde1b78e3e049606U, 0xbd9b23c1bcd4292cU, 0xbc0936e83cd29a08U, 0x3dbfd2cdbbac34c4U,
  0xbd73d54abd91232bU, 0x3de32755bc039e00U, 0x3d851bebbca33379U, 0xbd8be190bd3589ffU,
  0xbd8a00e13d89b66aU, 0xbd7a1efebd8971e9U, 0x3e0fb1e83de97cf7U, 0x3d1d77da3dc515c9U,
  0x3d0c0dee3caf69ecU, 0xbc6dadbbbcd1d27bU, 0x3de2c062be0430a0U, 0xbd0e55673cd7a5baU,
  0x3dbc7a783d071de4U, 0x3d15c9b83d5ea1b6U, 0x3d8567e9bc99d8b4U, 0xbb30eae23d976624U,
  0x3d3de24ebdb017a5U, 0x3d6ca77cbd9f1d89U, 0x3d80ccbebe0c7f85U, 0xbd80084dbd2e3e83U,
  0x3cbbd774bc4fbc22U, 0xbd42c160bd831822U, 0x3dd07e173cf4fb11U, 0x3d47792f3d8e0972U,
  0x3cc75f98bcb72586U, 0x3c8669c8bd04c279U, 0x3d8a7ef9be1946a7U, 0xbdbea374bd8346b5U,
  0xbdfb3e17bb464a42U, 0xbcce3aecbd25bbf0U, 0x3e11051b3da51461U, 0x3d8da13e3d56f3d0U,
  0xbd2215e6bd900a47U, 0x3ca28c14bcf31e38U, 0xbb95b8d2bd24a77cU, 0xbd5d1724bc53dff3U,
  0xbd84eaf13d5023dfU, 0xbda3072a3c863039U, 0x3e1decf63da3b3eaU, 0x3d4513adbd1cef6eU,
  0xbdaa7100be32b0b2U, 0x3d1dd55dbd112128U, 0x3d369b59be2c5609U, 0xbd65412e39ad87b5U,
  0xbd99e2cc3b4d89a7U, 0xbdb42e67bd97d6b0U, 0x3e28e8af3dd9a822U, 0x3d905d863ccb8c2eU,
  0x3d38ac6ebdd9a7b3U, 0x3e0cfbb3bc276b31U, 0x3c6be441bd9370a9U, 0xbd5496d2bd0b49edU,
  0xbd1a5c7e3b37e21eU, 0xbd6e0583bc5afab9U, 0x3da179173d9a7221U, 0x3e1cd5143d703a14U,
  0xbd2e2aa8bdbda86bU, 0x3d23acd7b996f03cU, 0x3a3c091cbd83b6d2U, 0xbe326d48bb38b02dU,
  0xbd9952dd3db46b7cU, 0x3bf278e5bd6139b8U, 0x3dd1e6eb3c4612e1U, 0x3e1e2b923dc2560cU,
  0xbd2645543beeddcfU, 0x3d8828d7bd527353U, 0xbc697e95bdc27e17U, 0xbde6a984bd82e965U,
  0x3d350b723d48a4cbU, 0xbc9590e23c378611U, 0x3d0900a83dac85daU, 0x3dc640d0bc99a68bU,
  0xbdbb031dbd311fa1U, 0x3db378ebbc68aa1aU, 0x3d4b6e93bdd9f353U, 0xbe24f1843dc75b70U,
  0x3c3b620c3d7329feU, 0x3d04095dbd44a992U, 0x3dbe30d83e0d37dcU, 0xbb8ee6f63cc04392U,
  0x3cc58ad03d308e3cU, 0x3e2e9f72bbd25c46U, 0x3d92200dbd6481a6U, 0xbdfdaac2bd6e4fd8U,
  0xbb2b84fc3d967d11U, 0x3b0a91f13c6af67eU, 0x3d0d7d443df7d37fU, 0x3d7cc0b03a60cf49U,
  0xbdb5edadbcd4dbeeU, 0x3d42f3c5babf4ddeU, 0x3d99802abdf44aa7U, 0xbd8eb16c3c31d03dU,
  0xbdf78fde3e01a9f5U, 0x3b157555bb844e8eU, 0x3d9bf4b13d00e1d9U, 0x3e0b33ab3da2734dU,
  0xba2f0df0bab0707cU, 0xbdc2d54fbd14bb50U, 0x3dc38e3cbc9c5913U, 0xbc53db67bd981dc1U,
  0xbd9581003d8cdaf0U, 0xbd569bb33cce495cU, 0x3d0f2b40bc0aabd4U, 0x3cda908d3d3cd720U,
  0x3a3b3609bdc934f4U, 0x3cfbf990bdcd56f0U, 0x3db69827be5a6a56U, 0xbd26695bbdaa3fa3U,
  0xbd7f2bf33cadc684U, 0x3c0373133c93a50bU, 0x3de5adb33d907cdcU, 0x3d8bdb8b3d402e6dU,
  0xbbebd232bd1d8f76U, 0x3d52d707ba7e68e2U, 0x3d723cf7be165beaU, 0xbe01ca713cf432a2U,
  0x3bcb45e23e0203c0U, 0xbda10d5ebc750280U, 0x3d930afb3d5023c9U, 0x3cf19a4f3d5cffafU,
  0xbd0bb2883d4fb39bU, 0x3d8431e6bdb9692bU, 0x3d17a891be0a14feU, 0xbdbbad21bd2603a7U,
  0xbce19f573ce9192fU, 0x3c9fb98cbd94a215U, 0x3e23664c3d6ddbc1U, 0x3d79fa203cbbbd2fU,
  0xbb3e972bbdc87b06U, 0xbc449a58bd2560c4U, 0x3d841aa33d857b2cU, 0xbddd2762bdbc5552U,
  0xbd721a033d8be07eU, 0x3d207aafbd4f8c4dU, 0x3d9018b93d7bb234U, 0x3c3baa9a3d936716U,
  0xbd25d0d9bccd81a2U, 0x3cc8759ebadc106eU, 0x3d6406fdbcdd46dcU, 0xbc827d4fbd0747a7U,
  0xbdb614073dbe3a7cU, 0xbdb7fb56bc170f26U, 0x3df12b113dc3a961U, 0x3d5f9a76bce00224U,
  0x3d382669bd036c00U, 0x3dbd3feabda567caU, 0x3dd430dbbe305d98U, 0xbe219d4a3d24903aU,
  0x3cf8ecbe3d443320U, 0xbdd36e06bdcd533dU, 0x3ca054f23d811c4aU, 0xbd09a8323da0c126U,
  0x3cf6221ebc807639U, 0xbc8b42cbbd720051U, 0x3d9b4674bda275dcU, 0xbdb45b2b3ab16f4cU,
  0xbe3760503d0abeebU, 0xbd2f26dfbcdf5e1eU, 0x3d89a3f73dd64273U, 0x3d79ca033dc49895U,
  0xbd0d8ebfbd16eab2U, 0x3e091b76bd453629U, 0x3dbf49b7bd729fd7U, 0xbd6c68b23c8a7512U,
  0xbd05a7363dda69f4U, 0x3d3640653d787e95U, 0x3d8284233d67efcbU, 0x3dcfaef83d8c2972U,
  0x3ca26adcbc6a990fU, 0x3d95e7463d1057b3U, 0x3df7234ebe2dd4a6U, 0xbd1e1b103a97ac37U,
  0xbd1f3be3bb809d70U, 0xbd8227603d9262dcU, 0x3e1da9e73be0b573U, 0x3e1b668e3df59c77U,
  0xbcb27cf2bbf8bffdU, 0x3d787827bd9b0497U, 0x3c5ade59be453981U, 0xbc84aa6e3bbdfbf0U,
  0x3c8892093df48127U, 0xbc9f910d3cd205b8U, 0x3d0536b03c86de14U, 0xbc8f35823d932ad6U,
  0x3c73279ebda006e3U, 0xbd4bbc52be02f6d7U, 0x3cf79b2abe86b63dU, 0x3b9a38393d114d4cU,
  0xbdd94e273d07e2ccU, 0xbde379af3c734085U, 0x3e2e5c7f3de20c96U, 0x3e1e37feba823377U,
  0xbda8e479be2ae018U, 0x3d9ab43abd87d217U, 0x3d129351bcb5d75cU, 0xbd8de929bd90b266U,
  0xbd06ca983de1dd56U, 0xbc937f56bd2e2bc7U, 0x3c905bb13d60a7f3U, 0x3d1ac885bc45d257U,
  0xbda67c90bd606723U, 0x3d017c8e3c9e281bU, 0x3da56b95bd7f9c14U, 0xbe18917c3d55f9a6U,
  0x3ba4a2ac3cd93becU, 0xbd3c5c5abd537d0aU, 0x3d5dec6d3c9539a9U, 0x3e04dc0d3bc850c5U,
  0xbc4aee1e3d07ce02U, 0x3e135d73bda75ce7U, 0x3d4b742cbd05bddfU, 0xbe1bd103bd4514f4U,
  0xbd8cc28c3cd7c7b3U, 0xbd6da44ebd6d2213U, 0x3a90bff23d09ab2eU, 0x3e267ea03d1d3304U,
  0xbd1daf3abdb10376U, 0x3cebde283d1aa2ffU, 0x3dc3e9893d083c49U, 0xbdcf85833cad301eU,
  0xbbacaba53d03b94eU, 0x3c3db9b23ce17279U, 0x3dfb33ea3dfd31b3U, 0x3e1e2cc2bb52d013U,
  0xbce7a718bb8637a6U, 0x3d966e2f3cf0e597U, 0x3dacc33bbe46f2b0U, 0xbd941b3dbb83cd15U,
  0x3995b18e3cbb71f5U, 0xbcbb3b613cae69a2U, 0x3d2dd1293e0376f0U, 0x3de97dacb99eb718U,
  0x3c2e55f3bc9b7df9U, 0x3d0e40e6bcdd7f8aU, 0x3d4e00c4be53112aU, 0xbda4e6d2bd9a6db4U,
  0xbda7d7b23de9d00fU, 0xbddde09ebced32c4U, 0x3d96e1303dba8348U, 0x3e10ae31b9cb3f1fU,
  0xbd82a76bbd1bab33U, 0x3d2450fabd87065bU, 0x3e0cd8b1be0687c1U, 0xbdd148c93c315b77U,
  0xbe47ad0f3d841673U, 0xbe191d20bdb62199U, 0x3dbc95243c65c523U, 0x3d3a0034bcf7be10U,
  0xbda9b2b8bd0f9919U, 0xbd2b7eadbdeb1e1cU, 0x3d3706c2be0a2a11U, 0xbe2b9b3fbddd0a85U,
  0xbdb040133db9a978U, 0xbd4f291a3c8e52baU, 0x3cba32d1bc06eb12U, 0xbd8fe3cc3ca5e89cU,
  0xbc33277ebc3fdb12U, 0x3d1162fa3d137068U, 0x3d6976eebe3a77c0U, 0xbe69470abcecd396U,
  0xbd9ba931bcc1b350U, 0x3c57cb0cbcc8fa89U, 0x3d1acf113d885b80U, 0x3d44b57c3dd77b6eU,
  0xbd60a23abdb77772U, 0x3e0171d7bdd23dabU, 0x3e00d29fbe355322U, 0xbe6b6f5cbde6418fU,
  0xbe20f23e3dad7bb1U, 0x3c893b90bd9f38b7U, 0x3dc585f0bc884cd8U, 0xbcf3f38f3d5386b9U,
  0xbd7c0333bda6f227U, 0x3d4b00723b66e129U, 0xbcb31b5ebe24d607U, 0xbe251d9fbd830042U,
  0xbddc45cf3dd125edU, 0xbbf0c82fbdbe3266U, 0x3bdb96483d0571baU, 0x3da3e6813b79da5bU,
  0x3d4b6826be380420U, 0x3c28ecf0bcc68ebdU, 0x3c283553be8bb978U, 0xbcd674c3bd796507U,
  0xbe5aa5403d1a498aU, 0xbcb1a8fabc823a69U, 0x3d408534bd8615a7U, 0x3ca19ab73d8294eeU,
  0xbc820851bd69ef62U, 0x3dc37beebdfdea3fU, 0x3d644400be4b6000U, 0xbd8c5443bd38585eU,
  0xbdefdd7f3dcccae5U, 0x3b3832dbbd8028e8U, 0x3db3ad663d9e4349U, 0x3de2f4923dd096cfU,
  0xbd8b212ebe006109U, 0x3d192b64bd39ac2dU, 0x3d7414a7be002129U, 0xbdfb9b4fbd0d7eedU,
  0xbda98ca53dc89f1eU, 0xbcf29e16bce97db8U, 0x3e1bd4193d2c0470U, 0x3d8fc2fb3dc63d51U,
  0xbd977dc0bd854ad8U, 0x3d5eb5bd3cbe27eeU, 0x3dd839b3bdfb74ecU, 0xbe193d55bd1be3e1U,
  0xbd58626f3d58d6faU, 0xbdab63383cc9e54dU, 0x3d92742cbcbe9613U, 0xbc9840cd3c1b5288U,
  0xbd0814493c4adf5eU, 0x3d5557ebbd8da270U, 0x3e0b9c75be4e91aaU, 0xbe430524bd7a4516U,
  0xbc0dba77bcbafd14U, 0x3c38897abd43125eU, 0x3d90db1c3d4d23b9U, 0xbbd8bc0d3d1296dbU,
  0xbb873eac3d3a8baaU, 0x3d2c1388be03cee5U, 0xbd653084be139aafU, 0xbda4cc65bdc4f934U,
  0xbe300c023def7a4eU, 0xbc0d581abd01fa87U, 0x3d04ceb93dd09fe0U, 0xbb4aba143d04fa89U,
  0x3d96953abd45d791U, 0x3bf593ddbdbafde8U, 0x3d3003e8be1646e0U, 0xbe406d60bd5b99d9U,
  0xbde03d713bac4cb7U, 0xbe046d3a3a2bfab5U, 0xbb8b8961bc5eeda0U, 0xbac874e33c2e8fc5U,
  0xbda26c12bdfcd086U, 0x3cccaef9bdb1ffbeU, 0x3de74350be52d7edU, 0xbe2401babde67fb4U,
  0xbe116f56bca0fc24U, 0xbcb9c1b63cde87fbU, 0x3e029bebbd045ae9U, 0x3c54aab33de0b353U,
  0xbe09da353d45c3dbU, 0x3d6a21d6bc1202c3U, 0x3d4f2b75bdac2314U, 0xbd3a5d08bda39471U,
  0xbdc847ba3a55c735U, 0xbd9fd01c37bbb6c8U, 0x3e0f13293c26a283U, 0xbde010b1bc8ebbb1U,
  0xbd69dc95bd14d824U, 0x3c37aea93b7fe1b6U, 0x3d9a6542be3aa893U, 0xbd923290bdcb49e7U,
  0xbda9fc8c3bac445dU, 0xbd051d993d4d09c8U, 0x3d97c5913ddff5e2U, 0x3d2b4c1bbcf2301fU,
  0x3b459507bdf3cef7U, 0xbdfbc7c3bd7537acU, 0x3d25f8f1be7feff6U, 0xbd24b850bdb74e6aU,
  0xbe2ed82dbd66fbf1U, 0xbe1321ca3c9e5128U, 0x3d879f6b3d2be600U, 0xbd246e6f3d41c925U,
  0xbd6ab5403c3c485aU, 0x3d59c4adbd42a50eU, 0x3d829caabe100fd5U, 0xbdbf158abce37b7bU,
  0xbd9ea0b83d852334U, 0xbd32c17f3cbcca71U, 0x3d8a07563d7db7dfU, 0xbc4c76c63d4635f3U,
  0xbd8c45ac3c0b6333U, 0x3d807351bd5c8ebcU, 0x3d67d888be512bd4U, 0xbe127a17bdc28032U,
  0xbdf8e0663e00a898U, 0xbcdb67dbbd981b28U, 0x3e0309d53d82d585U, 0x3d8a79893d2e4a7bU,
  0xbb9edf983d3fb5ccU, 0x3ca6ddcebd91a464U, 0x3d4c648fbd8ffc24U, 0xbd9a62ef3c900579U,
  0xbdecaf663d3cd766U, 0xbcfd875cbca4600fU, 0x3e10d9933dd7d1c4U, 0x3db86ba83c6449aeU,
  0xbda98e4cbc613a97U, 0xbd8991623d8f0ec1U, 0xbc98d140be942cedU, 0xbe1af9eeba2318d7U,
  0xbe00fede3d3de4afU, 0xbcc4ee1fbde6f26bU, 0x3d2673da3d5b291aU, 0xbd232f083ce429cfU,
  0xbd90b8e9bdc22b08U, 0x3c0831a7bda39310U, 0x3d854f65bdf0dbd0U, 0xbe7422603d4e245eU,
  0xbdbde343bcb50997U, 0xbd0408033bc24740U, 0x3dba82643d53e58fU, 0x3d3062883d442d1dU,
  0x3d00351cbd180efeU, 0xbdc71f8dbc701ae1U, 0x3d5a5b12bdf75438U, 0xbe39af2bbc579196U,
  0xbe35e8c03d3296a4U, 0xbde3657ebde8f11eU, 0x3def16713db68520U, 0xbcc6d099bd01faf9U,
  0xbcd069c6bd8046f2U, 0x3d91438abda54640U, 0x3d7863cbbe30537aU, 0xbde731263d1c08beU,
  0xbd3348143dd707a7U, 0xbdd2af51be135b2fU, 0x3db602f23e168cdcU, 0x3ded2b923cc98eaaU,
  0xbd829d723d28fdf4U, 0x3c8b201dbc0ba758U, 0x3ca86963be4877d0U, 0xbe4d39ffbba9f5d1U,
  0xbe518fbe3d4ab88fU, 0xbd8f0ca0bd2e8df0U, 0x3bd204693dd796baU, 0xbc0d01a73dc0906fU,
  0xbe09f5e7bd817d5dU, 0x3d977f3abdfc59d2U, 0x3db93329be4925baU, 0xbe04eedcbde11a99U,
  0xbdf9a5613c65e893U, 0xbe04dcef3a9bb1d4U, 0x3cc304273da474b1U, 0xbd5c16883c9ee5ceU,
  0x3c9742993e00314bU, 0xbd3ac685be0339baU, 0x3e27f50bbe2ed8ddU, 0xbdade9c6bd8e2536U,
  0xbc5425023da44befU, 0xbd8755dfbe000bcdU, 0x3d9af7343d02f34aU, 0xbc0104553d90267dU,
  0xbde022083caf35c7U, 0x3d879ac1bd694b69U, 0x3df3bac8be5aeb7fU, 0xbe6ca4d23cb50d92U,
  0xbdb22e0d3c8967c3U, 0xbe204149bdce9204U, 0x3e07f0cc3db54d29U, 0xbc9c90013d935afcU,
  0x3ca522ee3d14e1ebU, 0x3cb63c9ebd97beadU, 0x3d815d17bd41e3aeU, 0xbde7745ebc0690a8U,
  0xbdaae6cf3d7be539U, 0xbdc033dfbce5ec12U, 0x3c9667b7bc5f0dd3U, 0xbbbda26e3b1fa32bU,
  0xbda9fa6bbe09e859U, 0xbd003617bdb19480U, 0x3dd673f7bd071fcdU, 0xbde35b5abd8c79cbU,
  0xbe0a361bbd0f25a1U, 0xbc50a891bb3bce1cU, 0xbc49123cbd7c3387U, 0xbd72657d3d9704f2U,
  0xbd66b426bdd0f2aaU, 0xbd48fca4bc141978U, 0xbb9b128cbe734f04U, 0xbdfcefcb3d40f826U,
  0xbd9e4c803db63784U, 0xbdf94ea7bc9c23b1U, 0x3e15bcbb3d65f0d2U, 0x3da486c33d42216fU,
  0xbcd6a0c7be495b30U, 0x3da41f54bd449593U, 0x3c8a911ebc3eb731U, 0xbdbd3daabd8e80cfU,
  0x3c59ccb2bd1cedfcU, 0x3db8df713c606d15U, 0x3e03f8c6bb9e8b4fU, 0xbd1ac7a73b4f7bdcU,
  0x3cba843e3cd95130U, 0x3d60ecc73c5cc779U, 0x3ddab1d4bde8dd16U, 0xbe3890283c574c2eU,
  0xbdd1d3453da1db30U, 0x3d8877d23d4235e9U, 0x3dc837a43dae9258U, 0x3e0645c53df92f84U,
  0x3d1e4ca3bcf22ae0U, 0x3d1197fc3c82faceU, 0x3c472f91bdce98dbU, 0xbc75847fbd0c0bc5U,
  0xbdb94a533dd1af10U, 0x3d524e76bc1f54bcU, 0x3dd1a9b33d7ec5d2U, 0x3d0df2363e180ec0U,
  0xbd6769dabdff89a3U, 0xbce6b08d3e0928efU, 0x3e0f01a0bde98c75U, 0xbe0e85783df8874cU,
  0xbe06703c3de1ec80U, 0x3cc255b23d65debeU, 0x3e04fa08bc708e16U, 0xbd00b18b3dc07f41U,
  0x3bf5daefbdacb1a0U, 0x3c548ddb398e2ffcU, 0x3c2bde83be136703U, 0xbe109c793ceeda7fU,
  0xbda110223c0227d5U, 0xbc453569bc9f9daeU, 0x3e08222e3d7df827U, 0xbd8616bb3d33bff7U,
  0x3d72e4ffbbba2462U, 0xbd8feebcbaaa7a37U, 0x3d140154bcaef3eeU, 0xbe48b1cc3c6ac905U,
  0xbdba62f83d73d511U, 0xbd943f2cbda5037eU, 0x3dd474473d71a87dU, 0x3b1dab8e3dc87050U,
  0xbd7124babdf6f8feU, 0xbc81e30a3e09e843U, 0xbd132f61bdb3beebU, 0xbdbbf693bc8433feU,
  0xbe0c51cc3dae058aU, 0xbd81c4783c853cfaU, 0x3de68b6ebcbd664eU, 0x3dc6989b3dcc8356U,
  0x3d696d0bbe3a8e51U, 0x3dabe2973dc1dc95U, 0xbdba5182bde949e1U, 0xbe6a65cc3d19fbe0U,
  0xbc330eaebbbb422bU, 0xbd0a029f3d27e540U, 0x3d2b6a8abd37a23aU, 0xbc3199883d8ca862U,
  0xbc98fe5bbd8be0baU, 0xbcbca30a3dba5d67U, 0x3dc888c3bd95c313U, 0xbe03a293bd9a7c2eU,
  0xbd895a883d1e360bU, 0xbd72b8f5bd0d97ceU, 0x3d89d31c3c3e1e21U, 0x3aadbeae3e244e6fU,
  0x3d408befbc3b763fU, 0x3d83fa483c908b93U, 0x3b56d614be27cd3bU, 0xbe15023d3d88b9dbU,
  0xbe3131663d8e43bbU, 0x3d3162873d4e4761U, 0x3d09c25dbc35352aU, 0x3d8b5a0b3dd7e4feU,
  0x3bb88d2cbca4669dU, 0xbcb1fb083dd02207U, 0x3d9fd77dbe266255U, 0xbe2706393d8fe3feU,
  0xbddc45693cdcc8a9U, 0x3d0cf96b3c69f1dfU, 0x3db663d2bcc8768dU, 0xbd31b6063ddec253U,
  0xbbeccd65bd13de1aU, 0x3dab48f0bc3b8f20U, 0x3d16d770be5654b6U, 0xbe58705bbd062c0dU,
  0xbe018211bbe8ed58U, 0xbcef10cc3c757a49U, 0x3dcf969c3cf0775bU, 0xbd9fb43b3e2d5971U,
  0x3d0b7832be19fa18U, 0xbca969733d51fd92U, 0x3cf1b165be31bd88U, 0xbccbf1ebbcc7642cU,
  0xbe07014b3bca5a96U, 0x3d719ceb3c0a6dfeU, 0x3cd745ce3dc66788U, 0xbc8ff47a3d639935U,
  0xbc501476bd8217feU, 0x3d3689b23cb649fdU, 0x3c99cb70be2b2e61U, 0xbe39d8f13d69f2b8U,
  0xbe5717583daf169fU, 0xbb8989383d0e525fU, 0x3e412cd3bb6ce03dU, 0x3d690dfc3e356fcdU,
  0xbdf781cdbe1bd104U, 0x3d00dcb43d725353U, 0xbd614b88be72c9b8U, 0xbe26b4653d27adcbU,
  0xbd5321183d4437f1U, 0xbdb00aa13d9ad778U, 0x3ce08df83da05708U, 0xbc95b6553cb9400fU,
  0xbd876148bdb230b7U, 0x3d2229ffbc33d447U, 0x3df8f6f9be305005U, 0xbe2f8e593b97e882U,
  0xbd5c2dc5bd64fed9U, 0xbce2b2c13d2d2f4bU, 0x3de255bf3d516988U, 0x3de29a5c3dfd8079U,
  0x3c006907bdcf3c12U, 0x3b3dc2613db5fa43U, 0x3a60a3d3bd9ca507U, 0xbe3156ea3dd960c8U,
  0xbe44349f3e04f3f1U, 0x3cd89783bdbaf160U, 0x3d9237823df97712U, 0x3d75393c3d985e98U,
  0xbb6c2b97bdb8db67U, 0x3cebf20f3dce1724U, 0xbcf6341ebd538a92U, 0xbd3fd1ce3d7cf758U,
  0xbe0c111b3d26d482U, 0x3cb067d53da69b76U, 0x3d1f02eb3d0f2f41U, 0xbd1717b43c641f31U,
  0xbdb3f450be109a96U, 0x3d92cb703d809e07U, 0x3dcf976cbe2294adU, 0xbe109db1bd2f475dU,
  0xbd8f67a03dc97527U, 0x3da7241abd2ab258U, 0x3dc109df3d134fc8U, 0xbd891f4a3de72122U,
  0xbcbe7247be15ed85U, 0xbb911f113d691bf0U, 0x3d2a5a21be7543c7U, 0xbe2e5aa1ba79855fU,
  0xbd814ccf3d28a851U, 0x3a1147c4bcf0cc50U, 0x3e05a3263dc1a86fU, 0xbc049f3cbb287b82U,
  0xbe0740c5bd756893U, 0xbcf8ef693d1410cfU, 0xbc8b644dbe0ae4bbU, 0xbe2a213bbb43f264U,
  0xbe18da003d0bbf5eU, 0xbdc8df38bd8bc7bcU, 0x3df2e9613dfc8026U, 0x3d8051703d909caaU,
  0xbb57c448bd8bb549U, 0x3dc63dabbca7c3c7U, 0xbbdd9ef5bdcabeceU, 0xbdc20d273ddafdcaU,
  0xbe29a58f3e425825U, 0xbd6045c63d814bafU, 0x3e1329a93cdd2e4aU, 0xbd7f812a3e145ed3U,
  0x3d2c69a5bda41d34U, 0x3da58f9e3e10fa9eU, 0x3d36eb01be21f777U, 0xbe011ceb3c94f05eU,
  0xbd9a34f43d9863bcU, 0x3d0229ecbd0b8e94U, 0x3e3ef4bfbbe4eb6bU, 0x3dc927c93dd286f4U,
  0xbc58b009bd8f3b22U, 0x3cc878433ddc1714U, 0x3c11ff59be4ca26fU, 0xbe551c21bc0ce478U,
  0xbdd01b233df775efU, 0xbc33d651bc88be50U, 0x3c900f4ebc8a42dbU, 0x3d6a63d73dedcdd4U,
  0x3d0fd2a5be0370f7U, 0x3d651b7a3d41b422U, 0xbcdee9fdbe7dc01fU, 0xbd9050e3bd954640U,
  0xbe49afef3dafcee3U, 0xbd7266af3d666accU, 0x3e163694bd1f141eU, 0x3bc55cf73dc1a1e4U,
  0x3b2d62c2bdb6cbe6U, 0xbd70568c3d92bc97U, 0x3cb8b458be6ca824U, 0xbde1440fbd8ed6ecU,
  0xbe225a2d3d7ea589U, 0xbc75507bbbcfbcbdU, 0x3d8917bfbd8d06b9U, 0x3c3b11a63d80fefdU,
  0x3cbc89a6be2d37f1U, 0xbbda04c2bc90baf3U, 0x3db9988fbda122bdU, 0xbd6cbd56bbbc09cfU,
  0xbde9c4003d7c9fe3U, 0x3b8e9a1bbd9ab250U, 0x3cc31d7e3cdf44caU, 0xbda85c2f3ca70498U,
  0x3d188f943c08622fU, 0x3c9987a23d91f7d0U, 0xbcb056c8bcaec9fbU, 0xbe0c14cc3cf10a81U,
  0xbe0cc07f3dbf52f0U, 0x3d9541c0bd9fd77eU, 0x3d735eeabcd8eeb4U, 0xbd255e153ccf326aU,
  0xbd33fd86bd6dee5cU, 0xbdddb3fd3b6837d0U, 0x3db2119abdf0d0c3U, 0xbd6cce85bd3902b6U,
  0xbe2890803d6f85ceU, 0xbd155b223ad4373cU, 0x3e06f7fb3d7dc524U, 0x3d85160f3d4c2b93U,
  0xbd792c0c3b299bc6U, 0xbc9822123e095d63U, 0x3d9478b1bea1d5c6U, 0xbd1947523bee20cdU,
  0xbd8d3b5a3c90099fU, 0x3d5e39013ca7eb0dU, 0x3e1af9643d626f38U, 0xbd61d2053e200e28U,
  0x3cafc414bda86991U, 0x3d63bf11bc14ebc9U, 0x3daa39f8be3aec9dU, 0xbe110cf8bba0607aU,
  0xbe483e9d3de942f6U, 0xbc2f96cb3cee26bbU, 0x3d4c5e5a3d6a4f30U, 0xbc9979613d9fd3f5U,
  0xbad15ddc3d8b87ccU, 0x3d2908d03d3b1209U, 0x3d942ae3bd783405U, 0x3c36eb0bbd77f0acU,
  0xbd3f48f93cd3f91eU, 0xbd98df68bd40a717U, 0x3ccb6ddd3c624961U, 0x3dd1a896bdb23d54U,
  0x3dda0e393cea54a0U, 0xbd8f1001bdecf1e6U, 0x3d7d0a473c953f4cU, 0xbbf416f43d514facU,
  0x3af60a67bd4cea9dU, 0xbcde6d60bd840316U, 0x3c4595743d199161U, 0x3db2bd7ebc0c2c99U,
  0x3d6c7fa5bcc769acU, 0x3d9f33adbdab6a6aU, 0x3db357373de8ba14U, 0x3e56b4aa3d284b78U,
  0x3d31ebe4bc216f68U, 0xbc91cae03c682c95U, 0xbd0d52203c1d5785U, 0x3dda7032bda62879U,
  0x3e1442033d2e2e67U, 0x3c9e68b43d0fa940U, 0x3ddc3cfa3b244519U, 0x3e170db1bd6c6d3eU,
  0xbe1dbf46bb633078U, 0xbdda0d94bdeb2178U, 0xbd22406a3da74318U, 0x3da581e6bd9fa892U,
  0xbc6879be3d415110U, 0xbde5e05bbdfdd8feU, 0x3cad2749bd352df0U, 0x3e00e72cbd090cfbU,
  0xbd324eabbd2303b8U, 0xbdb0a44ebde789e2U, 0x3cf8f88ebcffe425U, 0xbe25aab2be03324aU,
  0xbddcf0113dddeec3U, 0x3dbe180fbddb333cU, 0x3e3ce6f2bbc80150U, 0x3d96b267bc241113U,
  0xbca98cc7bdc077bfU, 0xbb684d42be0db961U, 0x3cdc85a23e247c42U, 0xbd5f4d20be36d8d7U,
  0x3c6b8acb3de0890eU, 0xbd085aadbdeb1fefU, 0x3d84ebf6b9612e8eU, 0x3d5f9928bd6a2017U,
  0x3d505c12be186ea8U, 0xbe81e5fabd7744d5U, 0x3de73e643d08a286U, 0xbcb4f914bdf31350U,
  0x3db532003cd46fb7U, 0xbe001d2dbd221d5cU, 0xbd29e7703dc26034U, 0x3e08f6033d2cfb4fU,
  0x3db0ddd0bd0d1e61U, 0x3d4a5b85bda89c65U, 0xbd2aa513bc81d81aU, 0xbd487c6ebd319458U,
  0x3daf5eefbdaf50beU, 0x3c6536423d88b35dU, 0xbcddef5d3daede99U, 0x3d77d1c63da8f628U,
  0xbdbc00903be0988dU, 0xbd151230bd645f9dU, 0x3d5ab1823d4adffdU, 0x3d9715f6bc19be98U,
  0xbd6f6d93bd480d97U, 0xbd837807bca7e2b5U, 0x3d6c726d3e017555U, 0x3e0138203cceca69U,
  0xbd3aa25abdcbb950U, 0x3d826fb4bd2bf645U, 0x3d50b90cbb8baf79U, 0xbdb5558f3cbd989fU,
  0xbdc520c43d5a2d69U, 0xbd1760b1bdaa21cdU, 0x3d419251bced4429U, 0x3d9777433b5d6af3U,
  0x3db094ce3c8148ccU, 0xbe05ac66bdef902aU, 0xbcbf1f813dd21c49U, 0xbda7b8e8be16bf92U,
  0xba1f8e223dd2e0f0U, 0x3d15c0e6bddb695cU, 0x3dea71a8bb9f2beeU, 0x3e18d6f63d74817cU,
  0x3cca69dfbba2f874U, 0x3da47ecdbe2ed1fcU, 0xbc52a6643ce67c00U, 0x3d19c805bde91207U,
  0x3d7932f83d921111U, 0xbd158cbdbd9f7cf0U, 0x3b9375eb3c4e4783U, 0x3e417467bd9a08efU,
  0x3dd36cd0bd3c6d2aU, 0xbdc88cfdbe146606U, 0x3cd2c3f13ddc62e0U, 0x3ac830cebd3466e7U,
  0x3d3bc1163d6ff8b8U, 0x3cbef73bbd934393U, 0xbc5864f03e1f55ceU, 0x3dea2edebb0781b0U,
  0x3c3e4d98bd743bddU, 0x3d17cf58bdcd52d1U, 0x3db1648bbb97f720U, 0xbc1a532dbdd16d35U,
  0xbb3c0e5b3d9a052eU, 0xbd856ff9bdf83607U, 0xbbaf2440bcb53702U, 0x3d86c9fcbdef831bU,
  0xbc91c7f33d4be6f5U, 0xbe0d5143bd4848b6U, 0x3d09bdb8bc702082U, 0xbdb802a43b7ed279U,
  0x3d8577423d8b046fU, 0x3cbdbe0abe007cbaU, 0x3dbc9af6bdd9df8eU, 0x3da1823abb310131U,
  0x3dd73fc9bd75213eU, 0xbe1ae414be31660fU, 0xbd8dc36c3d97934bU, 0x3a3b2902bd60f6f5U,
  0xbda770f33d6b301dU, 0x3cc2f4c1bdf82ffcU, 0x3cd9a70f3dd39009U, 0x3df52378bd94de2eU,
  0xbd18f5f6bdd2f889U, 0xbe028d01bde9d7c3U, 0xbce1e2b83dd0f420U, 0x3a4888c4bdb4b16bU,
  0xbd1d9720bd45453fU, 0xbe0a2ae9bd0fa80fU, 0xbcd648fa3c820c69U, 0x3dea6231bd224143U,
  0xbc8d1d20bd9896dbU, 0xbd782cd0bdba5611U, 0x3cb14a1d3d49586aU, 0x3cdbd3ccbe1701f2U,
  0x3b0c625cbcc8cf74U, 0xbd3917503b8112e9U, 0x3cadf4dc3c8116e6U, 0x3e055789bcbe487dU,
  0x3d3f3628bcd67fb9U, 0xbdec99fdbdac459dU, 0x3cbbef9a3d46acaeU, 0xbcf927ebbd1ae5fbU,
  0x3db8afcb3e0a308bU, 0xbcdf0386bd449923U, 0x3de7b29ebd8ceeacU, 0x3e0adfb6bd48fa93U,
  0x3d1218403c09c875U, 0xbd336b2dbe04ab2aU, 0xbdc436ddbc010d8eU, 0x3cbd21e1bd0d7c05U,
  0x3c1628d73db0df69U, 0xbd6a6722bd9f0374U, 0x3e07eb023d49feacU, 0x3ddecd1bbe241624U,
  0xbd1849efbd21fd19U, 0xbde17fa8bc729df2U, 0xbd1a0df23e00e97cU, 0xbd153852be2fcb10U,
  0xbdc9b8be3d5a1533U, 0x3d903ff1bd1f7866U, 0xbb2e1dbbbdbc8b8bU, 0x3dff9fe93da909e3U,
  0xbb540056be243de0U, 0x3d11e0d6bd2aaaa6U, 0x3d02e9703d456227U, 0x3cd76669be0b9646U,
  0xbe079889bce059f4U, 0xbd82933dbda3be96U, 0xbdc3aa423b95acbaU, 0x3dd0888bbdfe68c3U,
  0x3a5eeafa3d6c90b4U, 0xbd954a01bda8f04fU, 0xbc89b8563ccb376aU, 0xbd105ac2be027506U,
  0xbd5e2e19bd95dbacU, 0x3dcd0d07bd7aa365U, 0x387f0784bd378917U, 0x3d543d633cb687acU,
  0x3d8f674e3c1f62e8U, 0xbdf7800abd9837ccU, 0xbcdb44183d34c92dU, 0x3dac0b59bdf6e19eU,
  0x3d8a93443d2cc50aU, 0xbe04245d3c595b54U, 0x3d948d7b3dc806f7U, 0x3d8e1f09bd3eb8d6U,
  0xbdd00608bdc6c6d3U, 0x3de85e1fbdccae5fU, 0x3dbf57a5b85e8c9cU, 0x3dfb1f5fbd453cfdU,
  0xbbb173c1bdd014b0U, 0x3cb709903d227e7cU, 0x3c1c3f023dcbcdcfU, 0x3dfab3afbd9b6eeeU,
  0xbe293236bd91c2b1U, 0xbe30b6e83abfa215U, 0x3d1a6595bcea9583U, 0xbd8047d0be059b41U,
  0xbc967f8b3c152856U, 0xbd27754bbdc39690U, 0x3db522973cb2b8ddU, 0xbb5321e3bd4d2145U,
  0xbda97616bc2b8791U, 0x3b23515abe1bae37U, 0xbd394095bd5bbc58U, 0x3d938fd2be135561U,
  0xbc64e07b3dc48e5eU, 0xbd0456a8bd8e3dccU, 0x3df9e625bd8f06f1U, 0x3d78cee7bd1f628cU,
  0x3d246d8f3d1a16f8U, 0xbd0647f2bd75b67dU, 0xbb8f2d0f3c13b44dU, 0x3d53fd9cbe1c0e0eU,
  0x3d7b98b33d08edf2U, 0xbd88134ebdcc4a0aU, 0xbc66c98fbd22915cU, 0x3c3b91de3d8a2ecdU,
  0x3d0c9a4bbe177b2dU, 0xbda058c2bd9bb015U, 0x3dea1e243caea5a7U, 0x3d76e225bdf9d40aU,
  0x3df097903d2af8f2U, 0xbdeabb81bd45cdbaU, 0xbaaf0ce13dbad2f9U, 0x3d6850913d81974aU,
  0xbb1b4ab33ca27ffdU, 0xbc2d2b2cbe2da83cU, 0x3d9ab2923dd4287bU, 0xbc48b559bc4db6e4U,
  0x3cf4670f3cf78a06U, 0x3dd1863ebda40c38U, 0x3e0550843ca9cfd8U, 0x3dbe00ea3d76d36eU,
  0x3e0745debd63f1e1U, 0xbdc8e7a1bcb98dbfU, 0xbd8a96bc3e00b247U, 0x3cd23307bda100e6U,
  0x3d7b3bc0be0b7bd4U, 0xba44bcf1bcf1096fU, 0x3cc2b015bcdd26adU, 0x3e2aec08bccd3676U,
  0xbe1f35f53dd4ee04U, 0x3cded282bd8d9fb4U, 0x3d8c5d583c628fd6U, 0xbd8939603d469409U,
  0x3d70e1babd560fe9U, 0x3db2fdb3bdd09c59U, 0x3d5ebb4cbc23bedbU, 0x3cf2e131bd3c557aU,
  0x3de58d57bb42070aU, 0xbe0a3a3b3df4815fU, 0xbbd125103cf9d3e7U, 0x3ba08b90bd99c7c5U,
  0x3a85b790bd9453b2U, 0x3dbd4b20bda5931dU, 0x3db337e93c50e5deU, 0x3e29b8a13d6643a4U,
  0xbce6ddabbd966820U, 0xbd703db2bdebd86eU, 0xbc9f67d43dc97755U, 0x3e1c5a69bd57d1c7U,
  0x3da96e193c53be6cU, 0x3da10825bc651d73U, 0x3b3fd60e3db3fc5fU, 0x3e1191953d8adadfU,
  0xbd23390f3c1ee297U, 0x3b92a95cbca6760bU, 0x3db66520bc181776U, 0x3de94f58bda16510U,
  0x3d88b13abe0ecdccU, 0x3d346602bbc2fd72U, 0x3d93f34f3dcd1f4dU, 0x3ce6ad0cbd6a5e42U,
  0xbcc4e4643cecd908U, 0x3d190c8cbda1dd58U, 0x3c1182aabcbf8bd3U, 0x3ddc7fdbbcd16c5cU,
  0x3a742e863cacb773U, 0x3d2d2e5cbd97afe7U, 0x3df4b84b3d7d1a4aU, 0x3e0594d43dac250dU,
  0x3d143e5e3cd8922eU, 0xbdbe8875bd9f1a02U, 0xbcadfe933dd95fa3U, 0x3b638153bceb121dU,
  0x3bf47be83dcbde64U, 0x3dd6dfc53c7434bdU, 0x3d3b0b9a3d5644fbU, 0x3e643c9b3e16b154U,
  0xbc24f1b03c8ddaa4U, 0x3df5f1b5bde11d34U, 0x3d4edf203da8864fU, 0x3da51786bcc71b72U,
  0xbcf463a8bdfe794eU, 0x3d86fd19bc2f6baaU, 0xbcb140a23d92cb9fU, 0x3de327dd3cd3534bU,
  0xbe11af25bd02580eU, 0xbe12f8c4bc90d0d5U, 0x3cacb5203cdb5c2bU, 0xba8f5519be28889aU,
  0x3d9d875f3d168bcfU, 0x3cb3a2453cb6fb6aU, 0x3e093a83bdbe2c35U, 0x3dbca3953d36b588U,
  0xbcd60f5d3cb01db3U, 0x3c1f2adabe065144U, 0xbcfb5ccc3cd1ee59U, 0x3e1b94f9be16ad57U,
  0x3d060272bd162596U, 0x3d4c5bafbdce549bU, 0x3d0f7a203dc27174U, 0x3d4c806f3cbe89c7U,
  0x3dd65b37bd98a317U, 0xbabe08bfbdeb0d4bU, 0x3da3e5ea3dc2f338U, 0xbcd9ffc3bdd30fc4U,
  0x3d1cf2e43c0d0894U, 0xbb9eeaf8bde2b08cU, 0x3d3ccc6a3df7ab79U, 0x3e2104e53cd291c2U,
  0xbc0b84edbd860a0aU, 0xbd2df46ebd96d219U, 0xbccdb7283dc6dd4bU, 0x3cd924603c73c214U,
  0x3e0a6490bd9e2d24U, 0x3dacea08bd4cf8a5U, 0x3dae8a9f3ce674a2U, 0x3e1980633cf1b26fU,
  0xbd22d0d2bcdc32c3U, 0xbd5c4eaabd7bee5cU, 0x3d4f954c3e08e3b9U, 0x3b6c57813a94b394U,
  0xbd9826083cab5b69U, 0x3d6db1a9bcdd92a1U, 0x3d55258f3de65372U, 0x3dd9ddb93da9e175U,
  0xbddd9d66bd7a67ccU, 0xbd140f8ebd3bfd0aU, 0x3d53c2753da611aeU, 0x3da53ec3bd38ae39U,
  0x3dd46c5b3d9621e7U, 0x3dca1c80bde10d4fU, 0x3d3681413dc4d097U, 0xbb9a5eac3d0faf44U,
  0x3dd3888d3ce56fc9U, 0xbda5c866bd8ca442U, 0xbd0913d83d8ae88dU, 0x3d0ddee0bdee2d50U,
  0x3b9f34813b0de21bU, 0x3db422c9bc981df8U, 0x3dca91f13df0bd00U, 0x3dcb43353e01b7caU,
  0x3da51d933ced8b38U, 0xbe0f125fbdd61be1U, 0xbc0adc273db1ad4bU, 0xbc3f647ebdce5072U,
  0x3deb684e3ce9874eU, 0x3e0dd72bbdb072e3U, 0x3dfb675d3b31b3adU, 0x3e34af57bcdea5aeU,
  0x3d7691313d3b0c52U, 0xbd42ef7f3dc02894U, 0xbd41661b3e37582dU, 0xbc6db889bdfe181dU,
  0x3e39e84fbd66d568U, 0x3da1ccd1bdf9fab8U, 0x3d2d2e11bddf656bU, 0x3d54246e3c9bff5fU,
  0x3b8ff02abd68f957U, 0xbd984facbd31e543U, 0x3c50bc8c3e043699U, 0x3c341a94bd2ef2ceU,
  0x3c8f95b3bd87a238U, 0x3dd061543c64a506U, 0x3ccc5af63d9d17a7U, 0x3d32dea33db7766cU,
  0xbd4f5f143c6bf61aU, 0xbdbba6243bd3e266U, 0x3d8d32c63d47bd11U, 0x3bf44bcebe17790bU,
  0xbc3c54f1bd3bdb98U, 0x3dc4200fbdd0bcbbU, 0x3dcb7f473ddeac82U, 0x3ca65dc03d4c1a82U,
  0xbda061f83d9cd676U, 0x3d975218bd66f0d0U, 0xbd73ca643d6d7753U, 0x3d505030be04ea32U,
  0xbc38cabcbdc84d58U, 0x3dad96abbdbc9a87U, 0xbcd0bf933d969380U, 0x3d9240fc3b858a6bU,
  0xbe0228f33be8b199U, 0xbd5a5b63bdbea31eU, 0xbba720383dfb175aU, 0x3d94b3f4bc1ffed2U,
  0xbd443813bbd891b4U, 0x3d80da0ebd25d923U, 0xbd404affbdbae5e9U, 0x3dc152aab81e52ccU,
  0xbd495f503da73b2fU, 0xbda26093be375568U, 0xbc2b7b073e107a29U, 0xbda8f9cdbd6a95cfU,
  0xbd92cafabd3e48c5U, 0x3dacddddbcc7079bU, 0x3dc2829b3dafb336U, 0x3dcb3879bda02c30U,
  0x3dee3f51bd7b70d8U, 0xbdfbc062bde227f8U, 0x3c96cf2f3e0f6260U, 0xbca3f8dabe206442U,
  0x3dde1ed23d284f0aU, 0x3cd504efbd668b89U, 0x3c4ec08bbdc25569U, 0x3e6af0e73d33fe57U,
  0x3d6620383d66cdd0U, 0xbdcecb2dbd82ecbfU, 0xbc5fad0f3df46848U, 0x3dbf7061be060104U,
  0x3e47abf13dcc2adbU, 0x3e009197bcc1cebeU, 0x3dda58273e483e9aU, 0x3e505096bcecf36eU,
  0x3cda01febd089756U, 0x3d29dc34bd12e82bU, 0x3cf385b23df41715U, 0x3af331abbd0b1b4eU,
  0xbd420a0c3d57e05cU, 0x3de91e0bbd17942aU, 0x3de130553d91b01dU, 0x3da6ae89bd23a41aU,
  0xbc4f286cbd2d54efU, 0xbdd09ff73d9bdc50U, 0x3d5642893d99ef0cU, 0x3a771f15bd9b9cf4U,
  0x3da7b653bdc43066U, 0xbda749b13c6a0f6eU, 0x3d1c320e3d966c1eU, 0x3e132cfebc16b01fU,
  0xbd965c623d4e2cd4U, 0xbdaf1b59bda3b6bfU, 0x3dbe2aadbd0e27f6U, 0x3d8e0b93bdf388d7U,
  0xbe2117babcd0e573U, 0x3d5c229ebe12ece4U, 0x3d85ea0fbd647c17U, 0x3dc0d1d3bd829f1eU,
  0x3ca63191bc15cbccU, 0xbe08c3d7bd89f64cU, 0xbc68ce6f3cbb3aeeU, 0x3d875902bdbf427fU,
  0xbd2c2539bccb52a5U, 0xbceb9e1bbcb2ac55U, 0x3cf251b43d1ce9e1U, 0x3e01f1573da38d50U,
  0x3cf45094bd851b5cU, 0xbbff9483bd074447U, 0x3d79b5953d9bff82U, 0x3ddfe9c1bd9ba84aU,
  0x3c7c3adb3d177763U, 0x3d1883f13bc298dcU, 0x3ce01a203ce0a693U, 0xbbe8f8353d03e15aU,
  0xbdbc9dfc3ce8ebe6U, 0x3dc50b053c9ac346U, 0x3dbb28443dedd7faU, 0x3e022208bce3f61aU,
  0x3d18383ebdaabc76U, 0x3d977dc1be0a203fU, 0xbc12474b3da006dfU, 0x3d9a7c513d7c1eedU,
  0xbca722e2bc58eeedU, 0xbc6d930cbd910956U, 0x3d56c695bc0e19deU, 0x3e0d0a1fbd59c217U,
  0xbcfe693abccf042eU, 0xbce642aa3b78969eU, 0x3d8546703d2d90e4U, 0xbd54211fbd91d76eU,
  0x3c4ce9593d7b0073U, 0x3cf186d4bc215a0aU, 0xbd30e5443d6f1fecU, 0x3d1979d0bce438d7U,
  0x3d158ec93d196b30U, 0xbd8daf7b3ae3f3a3U, 0x3d83096a3d757a44U, 0xbd587a803d410a3cU,
  0xbd13cdddbd7e2b6aU, 0xbd096e74bd8aa99eU, 0x3d32214abd39e4dfU, 0x3c86df143ca6e4b0U,
  0xbd254673bd8a7fb8U, 0x3caf9149bceb5c55U, 0x3b217ae0bcee05c2U, 0x3c023e4abd26d23dU,
  0x3c90a601bd910b3dU, 0x3cacf83f3b2cb0d4U, 0xbd7485773d44587cU, 0xbd9e6c833cae2947U,
  0xbda817bfbcc60ec8U, 0x3d1706573d238a70U, 0xbcded200bd9e2443U, 0x3cc78201bcc79d0aU,
  0x3d8b0352bd363037U, 0xbcb6539bbcb8efd2U, 0xbd543224bd96499eU, 0xbd3efd323cb5b152U,
  0x3d54c3893b966350U, 0x3ca7e2a43ce176f9U, 0xbd28a4053d0be95cU, 0xbcc069f7bd9d1f83U,
  0x3d40dea23d425f54U, 0xbd1eed3c3bbc074aU, 0x3caa7ac43d99fdcaU, 0x3d40d6743d020678U,
  0xbd97b16a3d3367b6U, 0xbd1ba71dbb0e7b3fU, 0x3d3716943d71a450U, 0x3d1c541d3d2ffb92U,
  0x3d4b25dfbb7d9393U, 0x3d43c7d8bd02b033U, 0xbd1c51a73d5899b0U, 0x3d956aea3cf9ffa2U,
  0x3d1dbb7a3d2b0188U, 0x3cd1fe623d0d6d28U, 0x3d93bfa23d8d536cU, 0xbd90bc943d61f4d3U,
  0xbd6ae5d73d5084b3U, 0x3cce71ffbd03062bU, 0x3ad9bd003ce57980U, 0x3c5f0850bd85f7dfU,
  0xbc780c123d836d98U, 0x3cd9959cbb6b8ef5U, 0xbad928c0bd65e172U, 0xbd583ec0bd6f5d93U,
  0xbd13341f3cd1af82U, 0xbc43230dbd71c081U, 0x3d8768343d1f0506U, 0xbd2fa5f93d6f32cdU,
  0x3d0b27c93d10886aU, 0x3c51ddb8bc22c6bdU, 0x3c532f403d82f81eU, 0xbd7bf5f9bd0c8c18U,
  0x3d23a8cb3d522618U, 0xbd241b7bbd8a3f8bU, 0x3d95057c3cc7b4b0U, 0x3d3885da3d72c513U,
  0xbc89c703bd120ba8U, 0xbc40124b3ce8060bU, 0xbcf123da3d35433aU, 0x3d5e1f0e3d87ef01U,
  0xbd383f16bce0ad75U, 0xbd8a8e4f3b003e1dU, 0xbd00499cbcb6d316U, 0x3d840b003ca122f3U,
  0xbce40c0c3af7cc00U, 0xbd199657bd873cb2U, 0xba2e25003d8db44cU, 0x3c5ca0403c4004a7U,
  0x3d5c8a88bd7fd774U, 0xbd10b7293ce20630U, 0xbc5544883d2a9764U, 0x3d7b29043c41179eU,
  0x3c11c6023d66cf2cU, 0xbd97c6dd3d8433fcU, 0xbd2bfce33d73bdb0U, 0xbb2f487dbce24f95U,
  0xb9c86289bd34908fU, 0xbce802debd844678U, 0xbd1378cb3d8d97b4U, 0x3d2bf790bda0f414U,
  0xbb65ef473cecc1ecU, 0xbc6ef65dbc5b6095U, 0xbbdfc2303d4d7220U, 0x3cfde3083c888086U,
  0xbdad5c2a3d7bfe48U, 0x3d4680a1bda6902dU, 0xbd4337f23c4b5328U, 0xbcf72c823ce38fe0U,
  0xbc7ea0c8bc9d4916U, 0xbd97b8a4bc1e163eU, 0x3ba727d63d484ebcU, 0xbd993eb13b3f0f09U,
  0x3d6d639f3d81e2fbU, 0xbc620a2cbd5a587dU, 0x3cd830243d86beacU, 0xbc1757103c0b896bU,
  0x3cb55ea7bc88a190U, 0xbd37e7f0bd84937dU, 0xbd73d4de3bf6eef0U, 0x3d3958f33ce50d5cU,
  0x3d4966bbbda0a765U, 0xbccd275bbd974a3dU, 0xbd202e6bbd9d60b5U, 0x3bd40fb0bca0ea4cU,
  0xbd7869b73d91cfeeU, 0x3d2f18dabd8a711eU, 0xbd27e8ab3bca4230U, 0xbce6aba93d071a82U,
  0xbc161f053bdb3bd2U, 0x3d515630bc8136c2U, 0x3d64d6e8bd2188b2U, 0xbd251d813d3bf3edU,
  0xbbc9a5fb3cd13a50U, 0x3d3832303c281ccbU, 0xbc3db8103d082e84U, 0x3b6ff42b3d004bf7U,
  0x3d3bc0433cb38583U, 0xbd21e7e0bb33d3eeU, 0xbd926315bcac90caU, 0x3c13a3a8bda5e018U,
  0x3d4479e9bd3d40edU, 0xbc50b440bd9e7a71U, 0x3d59b05cbd41fd76U, 0xbd924a1ebd3c6b4cU,
  0xbcaca0343d48ad09U, 0xbced3973bc84b20cU, 0xbc53e008bd8189e7U, 0x3c83184c3c05a19bU,
  0xbd8d84823d653958U, 0x3d808654bd7abda6U, 0xbd6e37b23c7ed358U, 0xbd406520bcb52141U,
  0x3d64d44f3d6b256fU, 0xbc8a6639bcbf141eU, 0xbd27b8cdbd9773e4U, 0x3982ee00bd8bb928U,
  0xbcade9903c3f7e40U, 0xbd51d3bebd7cbdacU, 0xbd20f17dbcc30510U, 0xbcc741773ce7a218U,
  0x3d2669b3bc10a506U, 0xbd055429ba7fa43bU, 0x3d393d4c3d9cd97eU, 0x3c50f6703ca5e5d1U,
  0xbd2365243c12ecf8U, 0xbd7242d4bceff30aU, 0xbcdff7be3d4f5e50U, 0x3c0977313d2c7351U,
  0xbd8ec9453d073ab4U, 0xbd788b853aad8386U, 0xbbef9c503c52e3e0U, 0x3c7c8f78bcf2dc25U,
  0x3d01e604bd818f94U, 0xbd11a6583cdffaebU, 0xbc1a5430bcec9d9aU, 0x3c407855bd9d1066U,
  0xbc302213bda04e18U, 0x3d4d38613c09ee5aU, 0xbd9047253cb25800U, 0xbca11232bd4f3e83U,
  0x3d3f8aa53d29d2dcU, 0xbd250990bd4c048dU, 0xbc91b350b9a39800U, 0x3b6fd7d2bd52ab36U,
  0xbd3a41fe3d52737dU, 0x3c2d20ae3d648f40U, 0x3c6ac848bc439d38U, 0x3cf0eb583cbc3094U,
  0x3ca008c73d6ba798U, 0x3b898683bc65d58fU, 0x3d36b52abd11fcceU, 0xbd9e18cdbda63ac3U,
  0xbc56bd963d8a110aU, 0xbd2c946d3d86f46cU, 0x3d068e08bd1c0a24U, 0x3c1c34683d249a29U,
  0x3c89d3333d174ac0U, 0x3d2c8d4ebdac792fU, 0xbd052cee3d89ad04U, 0xbd894beabd855d29U,
  0xbb907cbe3ca676dbU, 0xbd2594eebc820d6cU, 0xbc4b6ea83d145a96U, 0xbd7cba523d6177b5U,
  0x3c28db9f3d6bd320U, 0x3d9695783d91db67U, 0x3d55db24bd8feae1U, 0xbd890e823d04f46bU,
  0x3d01f3833cb34bd4U, 0xbccbf17ebbe9ceb5U, 0xbd6be8fa3d8167faU, 0xbd9d390b3d8d6e06U,
  0x3cd2d906bcd91470U, 0x3d00edcebcec28b6U, 0xbc92c1e23cb635d4U, 0xbd8bcc86bd177a13U,
  0xbc62bdbbbd7724b2U, 0x3d8728b13c6c28c1U, 0x3cc81dd8bce085b8U, 0xbd87a0e13d6e99b4U,
  0x3d650d48bd65b4acU, 0xbd749f71bd94e7c2U, 0xbd33d3623d7bb028U, 0x3d3dfa67bd90987eU,
  0xbca3fd263adf48a7U, 0x3d0c8278bd5d8758U, 0xbcc0bd5abccb2cc2U, 0xbd9b3a72bd467ba5U,
  0x3c18ed253d4e65c8U, 0xbd6c1ef3bd207104U, 0xbd8b8e74bd832742U, 0xbd8682293d77f060U,
  0xbd8318c23d50db14U, 0x3cfd7dec3d0c083eU, 0xbd3a7b573d365934U, 0x3d4a05e03d2cb03bU,
  0x3bc60b8abd88a17eU, 0xbc440f90bd0decedU, 0xbd3d584cbc466280U, 0x3d6fcb79bd070abcU,
  0xbd285300bc18c324U, 0x3d2535f7bd8046e7U, 0x3d93910dbcbbc624U, 0xbd525875bc9aaa09U,
  0xbda52093bcb2d06eU, 0xbcaa9a363c798944U, 0x3ccbc424bc4aab60U, 0x3cacee88bcba3878U,
  0x3b4f2c14ba9d8a86U, 0xbd9764b4bd90ebb3U, 0xbcecd094bd83c278U, 0xbc88cfd6bd7e0bbfU,
  0xbda49b5e3d1a981dU, 0x3d33c7503d16302dU, 0xbd587d623d70ef10U, 0xbcb2507e3c5095ebU,
  0xbd7728d53cecfa4aU, 0xbd284d5bbd990272U, 0xbd9bdd71bd2cee7cU, 0xbd2f82bebd3017dcU,
  0xbd730b8abcd8891cU, 0xbc81c69c3d7fd009U, 0x3d1abb3d3d4fc974U, 0x3cc09903b9bac805U,
  0x3c283970bd61342eU, 0xbd4c791e3c3ae98aU, 0x3d574dbf3bc6ef84U, 0x3d33743c3ac56b3eU,
  0xbd29d36ebbee03b0U, 0x3d266a543c8c29cfU, 0xbd90f6223ab66040U, 0xbd13f170bd78180eU,
  0x3baab3b0bd990a64U, 0xbd159b88bd14d87bU, 0x3d85d552bc8d1c74U, 0x3b8f13d0bb3f69a0U,
  0xbd6a04b2bd8cedf8U, 0x3cf4dd703af90995U, 0x3d852b3ebd9d1ef6U, 0x3cf8b9463d751e7fU,
  0xbd8b8218bd8bd6faU, 0x3cd57a40bc59c3dcU, 0xbda85c12bd99b900U, 0xbd3317a13c36bb58U,
  0xbd0e7e5dbd32a31cU, 0x3d96e6543d215a98U, 0xbd6f8aadbd1fe5afU, 0xbd8d44a53d8173aaU,
  0xbba2e6c03d980438U, 0x3d0bdf1bbd9fac94U, 0xbd7c450d3d4f0236U, 0x3cc139fcbc8581feU,
  0xbccdaf38bd998b39U, 0x3a676500bd4ebd73U, 0xbd0f4656bd39496dU, 0x3c64c8103d24e978U,
  0x3d28db163c9e1fbcU, 0x3d1aedc23d88290fU, 0xbd7494d8bd800e09U, 0xbd4b6d783d293a7dU,
  0xbd9e6f6dbd564c57U, 0x3d8296c0bc8de3feU, 0xbd154c7ebccf4e10U, 0xbd92500c3cbc2b2cU,
  0x3d50b79cbc49aad0U, 0xbb43c70c3cdfc970U, 0x3d00b4463a95d940U, 0xbd8e3b183d69e7d8U,
  0xbd03efbfbb9a9a00U, 0xbbb4bb203d0b10baU, 0x3d36e7b8bd41d4ecU, 0x3d8b0aa53d75bf2eU,
  0x3c8da840bca04233U, 0xbd726dac3c0e78f3U, 0xbd9fa05dbc718203U, 0xbd2cc56c3bee1c70U,
  0xbc0189cc3d339b92U, 0xbd2fefd63d77e486U, 0xbd473f90bd8a8afaU, 0xbcec87973d6c85aaU,
  0xbd7654babba6d4c0U, 0xbb01de483ba52a51U, 0x3d6cc1bb3d244628U, 0x3d9cd07a3d43cf21U,
  0xbd9fd1ba3d8bc3aeU, 0x3d393f503c15b0feU, 0xbd9ff4bfbc836274U, 0xbd6194623d3baf15U,
  0x3cf47b67bc94ab0eU, 0x3d8e0c86bbcc58d2U, 0x3d01d202bc1d2d48U, 0x3ccc5e34bcb8626bU,
  0xbd23e1813d652930U, 0x3cd9ac2c3d1b8805U, 0x3c5f6ca8b8cbd800U, 0x3d67ce13bb4032fdU,
  0x3d053e46bc2019caU, 0x3bde0ed3bcca2f41U, 0x3b7acef23d86691dU, 0x3b278d20bda5c31bU,
  0xbd038dd43cfdb518U, 0x3d9b91d43c30c216U, 0xbd0cdf96bd246815U, 0xbc5269b3bd9add34U,
  0xbd9e1b90bd69fb02U, 0xbcc396ec3d4a0a8fU, 0xbd7b583bbda31314U, 0xbd88e324bc3a1ac0U,
  0x3d14d90dbb097020U, 0x3d5ce18c3d85fb10U, 0x3d8efc5dbc923f88U, 0xbd416468bc1ffd64U,
  0xbd0a13df3bc60b30U, 0x3d855e9d3d6b1617U, 0xbd9a6f5d3c4cfb58U, 0x3d65684cbb8a0219U,
  0xbd69cdcbbd5fccc2U, 0xbd856af9bce9e5f2U, 0x3c0ef735bd130b9fU, 0xbce346a4bda723d2U,
  0xbd8b6511bd853708U, 0xbd919535bda1a1eaU, 0xbc3c1a503d80cadcU, 0xbcb4e85a3d9073b2U,
  0x3cacd1a03c55a2b0U, 0xbd0072d93d897344U, 0x3d1e9f74bd92a768U, 0x3c3746f93c195787U,
  0x3c2e81103d864e52U, 0x3d801e8abd3b38e3U, 0xbc2c880dbd93d048U, 0xbcd7d3aa3ce2bb8aU,
  0xbd5689a4bca1db28U, 0x3c228c303d4e2084U, 0x3d756d41bd8311c1U, 0xbb1afd2dbda1b233U,
  0xb97dc501bc815021U, 0xbc8232573c986bccU, 0xbd2ecaf7bce6cf24U, 0xbd5eb0d0bd30578eU,
  0xbd563bb73bcbbd90U, 0xbd3d0e653d08b7c2U, 0xbd28d329bbef1d60U, 0xbd4e5111bceb7847U,
  0x3ccc4f3c3bc3d120U, 0x3c82a609bd25e23cU, 0xbda80bf2bd35bce9U, 0xbd839af1bc9961e5U,
  0xbc1f6b06bd36d866U, 0x3d8859f6bcfee027U, 0xbd7be2623b43ac80U, 0xbd54b3503d56c871U,
  0x3caaa8a8bd6d83f6U, 0x3d2d5959bc0645b9U, 0xbc14c73e3d878b43U, 0xbc9d53943b38d84eU,
  0x3cc4c43cbd49e4e6U, 0xbd3092f63d851145U, 0xbd92a1ef3d1919beU, 0xbd04b32ebc8430d5U,
  0xbd327e17bd8d2a90U, 0x3c912b2ebd5a9083U, 0x3b9b0e103bfd4d3bU, 0xbd0c7e9f3d6329efU,
  0xbd4cd71ebc7fe5ccU, 0x3d7f8c34bc50d6d0U, 0xbd33cb50bd40f6caU, 0xbc07f2f2bb481f31U,
  0xbd0c89873d7dd59cU, 0x3d32b0f6bc87faa0U, 0x3d62451bbd80dcdeU, 0xbb1a6ee0bd903713U,
  0x3d27e21dbcc8cc20U, 0x3cebca2cbd9094d7U, 0x3ce422733d80c00eU, 0xbd561f563d229c99U,
  0xbcd78159bd6b4a9cU, 0x3ceae21fbc549363U, 0xbd8841163d8fdab2U, 0x3d78346cbd5d5ca2U,
  0xbd3f6cc33d0a56f8U, 0xbd0058c63c66d7edU, 0xbd6545833d61fff0U, 0x3d43c55abd67d37fU,
  0x3c31d62b3d956bdaU, 0xbd79f38c3d06ca3cU, 0x3d6171c2bbad68eaU, 0x3cd1d44c3d099f3eU,
  0x3d1f4daebcc7ac40U, 0xbd922e06bd5f94e4U, 0xbd953062bbd562c0U, 0xbd664b01bc3c3518U,
  0xbd79166e3d8304eeU, 0xbc1f417cbda1992cU, 0xbceabddebd207e81U, 0x3d936118bcfa210cU,
  0xbc049838bd0bf2ecU, 0xbd8e59293d63f1deU, 0xbcb3e6bcbc612420U, 0x3ca17ed63c99785dU,
  0xbd8f6e18bda6f0d0U, 0x3cd3d340bd63d432U, 0xbd8a0601bd54ea09U, 0xbc5e02b03d41e1d2U,
  0x3d5acc5a3d3e6c4eU, 0xbd9812643ca3f3b6U, 0x3d54814a3d3d239cU, 0xbd9bebd93d319adcU,
  0x3c8fae983d91a050U, 0xbd8114a63d24c122U, 0xbbca3edd3d4a62c8U, 0xbbe75780bd5fb814U,
  0xbd213e733c063028U, 0x3d923656bd7f7b50U, 0xbda6db4abd85172aU, 0x3d9102ba3d76a916U,
  0x3d6e70ac3cb0ca5cU, 0xbbd7b3dabb92e742U, 0x3d73d4acbd1b25c4U, 0xbd6ce64cbd01ea7cU,
  0x3b6e0f00bcbf9bdaU, 0x3b94cf40bcfc9994U, 0xbd896710bd96b23bU, 0xbbcf6c2fbd0cf53dU,
  0x3d51bbc0bced0b3fU, 0x3c5e0c45bce40dc5U, 0xbc9cd730bd0cae32U, 0x3d9c68b43cbbfc22U,
  0xbdad5a5cbc81142aU, 0xbc66d1c0bccfd75aU, 0x3d68dfc83cb4e604U, 0x3ccd3075bcabae31U,
  0x3d20498abd8df454U, 0xbd73024dbd88bddcU, 0x3cdb59d13b94a31eU, 0xbd83cd2ebd9298a1U,
  0xbd27255bbd6716d2U, 0xbd75cc4cbcb02e3aU, 0x3d51103d3cd8f01cU, 0x3d40dade3d80110eU,
  0xbd9b27553cb4ada4U, 0x3cb5b0d1bcf29740U, 0x3b1da020bc7ef8f8U, 0xbd9809a6bbd63c59U,
  0x3ca3a5ddbd83a1ccU, 0x3cbf5d70bcb81d70U, 0x3d2370b2bd8c6303U, 0x3c59feb8bce98b42U,
  0x3c18c6b0bd3a8b43U, 0xbc82327abd713b1bU, 0xbc9de904bd83faf8U, 0xbc798d603c662c33U,
  0x3d0304853d044143U, 0xbce93c95bc607f39U, 0xbbf1a1e43d8e2ed1U, 0xbe22e39a3dc409e3U,
  0x3c36d7d5bd6de6b5U, 0xbd624b25bcb08d2eU, 0x3d959b53bdee32b6U, 0x3d981f4a3c21fae8U,
  0xbd99a86e3dce9f45U, 0xbd8832ce3defaca3U, 0xbc044e043c1f3db5U, 0xbd4dc6613c7ac505U,
  0x3daab5b7bd0388eaU, 0x3d6c9aff3d04dadcU, 0xbd4bcb21bd57b783U, 0xbc5438bfbc5ec09dU,
  0xbb3f8ae53cadc2aaU, 0xba5e14d23dbd43deU, 0xbd0f76a33e00444fU, 0xbdf99c513d7e3c31U,
  0x3e046199bd1cb2a1U, 0x3d360bf03dd7d5dbU, 0xbd2612adbd6c916aU, 0xbccad75f3d3cbd0eU,
  0xbda446163afd22e4U, 0xbbb431e03dbce0f5U, 0x3dc7616dbda1f002U, 0xbd8f555dbca94d82U,
  0x3d5e5da33d03aff8U, 0x3d6a856ebb6c2a8fU, 0x3cd4b8d8bd500c2dU, 0x3c07aeb83d24d4fdU,
  0x3d625a483c878330U, 0x3cb9a9cb3e2b6b57U, 0xbdbf189d3c5d1ce1U, 0xbe1a7b02ba3f224eU,
  0xbdaf71993bc92af3U, 0x3d5b4d18badd5c78U, 0xbbdaabed3d433d24U, 0x3d5a98983c0c5545U,
  0xbc93bf5d3ce17b86U, 0xbd254b2f3e1dbbe2U, 0xbe360c8e3e6cccaaU, 0xb9cbf2aebc5b8758U,
  0x3d9dcda33c88a6ffU, 0x3de2afed3bcb8b56U, 0x3d9ed842bdece56fU, 0xbc8c97dd3d97aeb7U,
  0xbd4a16cd3d8ee7cdU, 0x39fd476d3d51e64fU, 0x3d2f1e1f3d08e90bU, 0x3cc9968e3dec8189U,
  0xbd26fdf63c991fc7U, 0x3e2685893dc2b6e5U, 0xbd471c73bda24de2U, 0xbb0b4b3e3db7fbafU,
  0x3d67e670bd18b091U, 0x3dc986793d1f3ddcU, 0x3e05e061bd849e42U, 0xbc94ba29bd4949b9U,
  0xbb8c56c53d558af1U, 0x3d77ae2b3d7063e8U, 0x3daf6a15bd884f51U, 0x3cd8bb2c3c9afef6U,
  0xbd73d23f3de10ea8U, 0xbd681671bbbb9c65U, 0x3db1e587bab74ab8U, 0x3c1f8ea23d8ee870U,
  0xbc38c0163d8d453fU, 0x3dd5ccde3d68f417U, 0xbb91a7a93d2c6040U, 0xbd4b419dbd0fbf90U,
  0x3d8545663dc681a7U, 0x3cbbb920bca7fa7fU, 0x3d598397be07708cU, 0x3cab24c33d1f2af2U,
  0x3d57384c3d4ac89aU, 0x3d220a08bd43a1c8U, 0x3d070e58bd054e67U, 0x3d13fb273d811570U,
  0x3c9d3b053d1b104fU, 0xbd0ffbe43c5170e5U, 0xbcf4dd78bd691addU, 0xbd6a2703bd8ef2f1U,
  0xbd34e54b3cf40f27U, 0x3b8c1984bd91fd1eU, 0xbd5badffbd215a6cU, 0xbd453d98bce9924aU,
  0xbd3cb041bd85e104U, 0xbd3cceec3e1232ebU, 0x3aebcd01bb742b36U, 0xbddd6f1d3d43c037U,
  0xbb9d2e78bd6a4b86U, 0x3c05f5d5bc87662dU, 0x3ced9cfabddd64e9U, 0xbdb3a6493dbd8160U,
  0xbc94d1aebd9e5335U, 0xbc679f5d3e10620bU, 0xbdb7c7e4bd65ff50U, 0xbe240e193db9afccU,
  0xbe41b8c0bde8df6eU, 0x3c8dde6b39c6f4c0U, 0x3d9eb70fbe2ab33fU, 0xbd55ee663d2957adU,
  0xbc8de831bc064927U, 0x3d2d5ba13df20951U, 0xbd68d5b23d8db60fU, 0xbdf8bbcebd8de15fU,
  0x3dd820f7bca65edfU, 0xbd37b23fbdaad177U, 0x3d8dea6ebad52ea3U, 0xbdcc832e3d035434U,
  0x3d0464c7bc8fd22fU, 0xbd0355dc3e18e6faU, 0xbd19f1a03daf0ed2U, 0x3d8a232d3d8c963bU,
  0xbc23dac23c1ebf11U, 0x3e0bd0923c4dd4b0U, 0x3d092677bca8da79U, 0x3cd78d62bd113c5cU,
  0xbd8c2b3fbcd2d814U, 0xbddb03063d33e673U, 0xbdb39398bc08c294U, 0xbd9016f03d5043b9U,
  0xbd862c5dbdbf8acdU, 0x3d082cc4bd7bc7f7U, 0x3dacc47fbd631fd1U, 0x3d92ee0a3d27f512U,
  0xbcfceeb73db16804U, 0xbd399f553de2f266U, 0x3d6038693dd7a6d9U, 0xbd893a4bbadf6c48U,
  0x3c056ce63d0593c8U, 0x3defabbb3d3280e8U, 0xbca79a9abc443d98U, 0xbc0f0fa5bc4c082eU,
  0xbdbb5ab23d44cdceU, 0x3caa4c933d60877bU, 0x3cb9255ebd841187U, 0xbcfffe583d72192aU,
  0xbc788a1bbcae49f5U, 0x3e070fb3bdadf18fU, 0x3da990d6bcc355e7U, 0x3d8f77e6bb36887cU,
  0x3c7cde123d272157U, 0x3d159f053d953083U, 0xbd843e8c3e016e99U, 0xbd25bc6b3d0a8c3bU,
  0xbcd843943c7e367fU, 0x3deace4fbd452e6aU, 0x3cd6055d3ccf9af7U, 0x3d7effd53cef6119U,
  0xbd954c4e3c2f9f55U, 0xbcb64ece3d07bd4aU, 0xbdcc82083b1257a4U, 0xbd19fda33df2e2c2U,
  0xbe29e581bcfc9c9cU, 0x3d9ca2c9bd0fcd35U, 0x3d981c0dbdfb4b1eU, 0xbc072173ba3860fcU,
  0xbd83441abd9599e1U, 0x3d388bdd3ce92f59U, 0xbcc6d20e3d1e95d6U, 0xbe3db4d03de6c590U,
  0xbc9c28b53c90bd7fU, 0xbd94b9563c4a5ca1U, 0x3e073a333ce4402aU, 0x3d76f1733d385394U,
  0x3d0375943d8cde5fU, 0x3c68c04a3ca17f4dU, 0xbda716463dc47381U, 0xbe2619bc3ca67305U,
  0x3e370e363e033f91U, 0x3e1b51de3d65da79U, 0xbcbee628bdda923cU, 0xbd4b9a333d86578aU,
  0xbc2b8fd33d39174eU, 0x3dd9cc3c3d8367fcU, 0x3e24f99dbcf28cdcU, 0xbd58e2793d7e3ba6U,
  0x3c5d23f83dbdc816U, 0x3daf90d3bca8f1ddU, 0xbce142113c7ac4dbU, 0x3e27cbacbc19d949U,
  0x3cdd38fc3ddd9a2dU, 0xbdfd7a333e02a889U, 0xbdf4c5083d197aa2U, 0xbd9e56af3d9a9d2bU,
  0xbcf89f3ebd335a2fU, 0x3d83849ebc178599U, 0x3cd94717bd4c8444U, 0xbd81faef3cede623U,
  0xbdc0e587bd162a26U, 0x3d60fcec3dc70d64U, 0xbcf77036bde8ff3eU, 0xbdfc4c403ce4dd61U,
  0xbccea5c7bd44ddb3U, 0x3d1643d8bd41f532U, 0x3d96605bbb52da3dU, 0xbe0966f83dd5f796U,
  0x3cbe36ad3e12655cU, 0xbd59201f3d0ce9e8U, 0x3c0328c13dad2984U, 0xbddf1cf83de17860U,
  0x3d5f01b33d3dc4f2U, 0x3d7ac3c5bd8086aaU, 0x3d05ab753bd1dc8aU, 0x3d24effb3d47deaaU,
  0xbb1a022f3dc1f5f3U, 0x3d96c42a3d681321U, 0xbe091efd3dd89b15U, 0xbd48bf2d3dc6a739U,
  0xbcabb9febcc42abdU, 0xb9d754aebca1a016U, 0x3b9364b3bba5ac34U, 0xbb47ab5c3d27f586U,
  0xbdcd07143df41653U, 0xbc712bbf3e04cf55U, 0xbde59f5a3da36c66U, 0xbc0f95e33ccb6751U,
  0x3d18aafabc28756cU, 0x3deaf1ee3d0fbbacU, 0x3dda7539bdef0bedU, 0x3c55de52bcd2f2ccU,
  0xbd0f30b4bd872e9cU, 0xbd87103d3d992eddU, 0xbde4cc343d63d4fbU, 0xbd811b743d77e67dU,
  0xbc953e03bca778bbU, 0x3d2d687f3cbbb6a9U, 0xbd7526113bb83a70U, 0xbd8633b1bd8ef446U,
  0xbd8084c5bcc8c570U, 0xbd3195693df15878U, 0x3d4216e93d9c9758U, 0xbd9eb739bd462fd9U,
  0x3cc7c2b6bc40334fU, 0x3c77fa13bd33a291U, 0x3b3541b0bdb60705U, 0x3d178ab33d90c59aU,
  0xbddd7348bcbf8629U, 0x3b65c3b13be4a9f3U, 0xbdfccc9cbdad9beeU, 0xbd649e013bfc11a1U,
  0x3ce5c6f8bd6ddfe4U, 0x3daf90e4bdaaa245U, 0x3df2e389bcaf66e6U, 0x3c8d2257bc913acdU,
  0x3d09d2be3c6906eaU, 0x3d2bd93abd72584fU, 0x3cf18b013d1c55f2U, 0xba45511ebd9c903aU,
  0x3e4cc9cebcae2258U, 0x3c129103bd045cf9U, 0xbd48b7023dddeaacU, 0xbcf0c08bbb8261e0U,
  0x3c6a06373948d9cbU, 0xbd434fc5bbfc9f73U, 0x3cf4fb753e22b3adU, 0xbd2b99b8bd343b6aU,
  0xba91839abc58d32cU, 0x3d8a7660bcfd1137U, 0x3d91703bbd0f0f57U, 0xbcfd083fbd8d059bU,
  0xbc316a993d0cf019U, 0xbde2fc493cabb32aU, 0xbbedd57fbcd0e642U, 0xbdd2a703bda14933U,
  0x3ca5cd583cd4f65aU, 0xbddb703ebda4f9c9U, 0x3d3689e23d373ad4U, 0xbd90ea9bbc04acf4U,
  0xbd1e7ada3dcafaa5U, 0xbc4b34423d08f6deU, 0x3e07346f3bc1663aU, 0xbe38e9f3bdf6279dU,
  0x3d06ee563c95f577U, 0xbd355cedbcab5deaU, 0x3c7e906c3d308635U, 0x3d948499bd9710f7U,
  0xbd574a033dd7a314U, 0x3cae287e3c5c5f40U, 0xbd0a57213d759a27U, 0xbdb67310bce4cd73U,
  0x3d34416ebdaba8c5U, 0xbbe6edcc3c3fadfeU, 0x3ca155ec3d594e59U, 0x3d599120bb48d1d7U,
  0xbc7fcd81bc1db316U, 0xbde85a7ebd38cff6U, 0xbdff61cd3e1222bdU, 0xbe0c58543d8af4a9U,
  0x3da6eccb3d83e4c9U, 0x3c240303bd22269bU, 0x3dca6fe2bc4e83d1U, 0xbd1872fb3acdcfceU,
  0xbd74f0d73c5aa76bU, 0xbc77fe31bd4d3869U, 0xbd4c864a3cbdffaaU, 0xbad102653cf5147eU,
  0x3d37125f3dabadb0U, 0xbd31606cbcd19cd4U, 0xbbd8b715bc8b74feU, 0xbd908c333d495a6cU,
  0x3c49c3fc3d897603U, 0xbd41f7963c9b4553U, 0xbca22f2d3c8e40adU, 0xbd37ddf2bd0645c1U,
  0x3d51e117bd516133U, 0xbb5088173c57177eU, 0x3d0ac28b3d08fca5U, 0x3df7f424bcd926efU,
  0xbd8214113df38bd4U, 0xbc4166173d6cf66cU, 0xbdca58353e06f06fU, 0xbd93d49cbd464420U,
  0xbd44b8023d3f7bc4U, 0xbdaaabc9bd4a012eU, 0x3dac46ffbceb1dc8U, 0xbdac4b4cbcc05520U,
  0xbd73fb863d6117e7U, 0xbd92bd07bd97a5e4U, 0x3cc14377be811bf7U, 0xbdeca9723ddf26d9U,
  0x3c8f1efd3d3a9ab9U, 0x3d3e2bc8bcc56bc7U, 0xbc8e409f3c979bb6U, 0x3da414b9bd84c3b9U,
  0x390e6ab83dc52399U, 0x3d26f1293db9927bU, 0x3d63dabf3d9faa6dU, 0xbe02b5afbd0bce93U,
  0x3da169163d855817U, 0x3dc6f30bbdcec5ebU, 0xbc3f4639bd633af5U, 0xbd814014bb1bc24cU,
  0xbd36b81f3da493cfU, 0xbc873f92bb8f4256U, 0x3d05a0b93d5db321U, 0xb92b0500bca20bb2U,
  0x3d80a68a3ccf4300U, 0x3c8c37e53c86eef6U, 0xbc0b428dbd996450U, 0xbd0381a0bdabed95U,
  0xbd8ef1c13e038b30U, 0xbd57d9f83cfe61d5U, 0x3d1cde1ebd30f768U, 0xbd691ed9bd73bb5eU,
  0x39a956943cccdbe3U, 0xbda8c34abd8ae090U, 0x3de387e93d6d20c6U, 0xbc56e2513cc891a5U,
  0xbc9e31083e0e3d38U, 0xbc453cd0bd02bb59U, 0xbdbc89b1bd2bf4e1U, 0xbd16e513bcd2f697U,
  0x3dc314d6bd9f5b2cU, 0x3cea94283cc20409U, 0x3d757981bd485964U, 0xbd90b32e3c0ef2b1U,
  0xbe1913543d689008U, 0xbd1cec52bcd0b764U, 0x3d02ca103bf70483U, 0xbda5bb80bd361829U,
  0x3deacf46bcf48ca6U, 0x3d60e273bc1cf396U, 0x3cfcf294bb41928fU, 0xbd26c9ccbc0b0fbfU,
  0xbbc994053c5a887cU, 0x3dc79e1e3d6a7b91U, 0x3c8959e23e6abd44U, 0xbdd8b9c6bd342feeU,
  0x3d1e9b0fbd708a3bU, 0xbd22c97dbd7c9df9U, 0xbba7d5c1bcbdeb70U, 0x3d93c40dbd8f7889U,
  0xbd62d5d13dd1c64dU, 0x3c65533ebc930ec6U, 0xbc9ffb553e21d844U, 0xbc76259f3d8f985aU,
  0x3cc17db9bda3c4b5U, 0x3dd345863d8cc1e0U, 0xbd3069febd1ab2beU, 0x3d0e2b313d4636e7U,
  0x3d1b125b3d56340eU, 0x3c232a60bc0238bbU, 0x3db879e83d8235adU, 0xbdd0c4afbd37e83bU,
  0x3db203d0bd81e882U, 0x3c8b5fffbd372d86U, 0xbd96945ebc86685eU, 0x3d2f57c2bcf4a536U,
  0x3ce3a6b03d827553U, 0xbcdbe52c3d68210bU, 0xbac8d6eebd715399U, 0xbdf135f0bce261f9U,
  0xbd9b74fabd87ae25U, 0xbd2a4c72bd547b15U, 0x3decabd8bddd8341U, 0x3d6aac903ab62529U,
  0xbcb8067b3d33c1a4U, 0x39baeb603daf0f86U, 0x3d52a159bc86fadeU, 0xbe24a9703c2ef3ddU,
  0x3dd5d6e03d807b00U, 0xbd6f6cd13d43ddcaU, 0x3c1744c3bc888c19U, 0x3d4c20cabda1b08cU,
  0x3d2495f43e3c62a1U, 0xbdae3d633d4beef1U, 0xbc96659c3e0fec3cU, 0xbcd63f6a3e0302f1U,
  0xbb487c9a3d99bcccU, 0x3d0971d4bd27009aU, 0xbcc23436bcc09095U, 0x3db2f39cbd6277a4U,
  0x3c2da4583dd07fecU, 0xbc42faf7bc1ef7fbU, 0x3cdce48bbd84c772U, 0xbd46e1173d311754U,
  0x3d8adc1f3c94957eU, 0xbc56abccbae25e69U, 0x3cca8999bdaad9b2U, 0x3d6b38b5bda11b5dU,
  0xbd69bcb63dfa01eeU, 0xbc9a04ffbd03dc11U, 0x3c0e60b43dcc1881U, 0xbdcf553c3ccf99c7U,
  0xbd7835fdbcad74daU, 0x3d0faaf9bd31f4bbU, 0x3d8f4eb03c9fce2cU, 0xbc031a063b1a49aaU,
  0xbb5ba3da3d46abf6U, 0xbcf627563d89b57fU, 0x3d5fac24bd064b15U, 0xbdcb5677bcf9a0a5U,
  0x3daafbd63d3d9721U, 0xbbd066a8bd1b92e9U, 0x3dd09f99bd44fb4eU, 0x3d975172bcc00f0bU,
  0xbd5f4e893e0c72f6U, 0xbd21a2533dc45af8U, 0xbcb42a55bd314f6aU, 0x3d3238443ccbfc80U,
  0x3db1c5333cf1a859U, 0xbda3a9ff3d7bf0e1U, 0x3da14d25bd82d718U, 0x3e002ac03c9d425fU,
  0x3b31d8f53d515e04U, 0xbc69b0e8ba86f9d5U, 0xbd4f5102bc155bb5U, 0xbd9e6592bdbdbbd2U,
  0x3d08d59cbd7f0dc5U, 0x3cfa04f83d75aaa7U, 0x3c88b395bbc231c6U, 0x3dc37c37bd2a95a0U,
  0xbd3a13bd3e3ae1d6U, 0xba2d86303d882e05U, 0xbd890a0b3da85299U, 0xbdcaec8eba866ab6U,
  0x3c37a6133cacc241U, 0xbd643739bbd37bd7U, 0x3d1781b53d0802f6U, 0x3cee73403c284f13U,
  0xbc66ae533d6222d1U, 0x3c58a343bca832e6U, 0x3d39e1913d5bd58eU, 0x3bc2aa04bd03c96dU,
  0x3d1799abbceb0860U, 0x3dd6d11cbc5bf446U, 0x3d5154cd3d6547a8U, 0xbd53b2ecbce3c7b9U,
  0xbc8165203a93070bU, 0xbd1cfd7bbc1eefd6U, 0x3dc4057cbdcb2c14U, 0xbd8c9257bd6614dcU,
  0xbcda72e1bc9ccca7U, 0x3d11d1d6be03a53bU, 0x3cb717793d34c4f3U, 0xbd211ef4bdc1dfb5U,
  0x3c39b4cc3e779e4eU, 0xbd777238bd343f45U, 0x3deff689bdf39732U, 0xbd99bf0abbb0c6ffU,
  0xb9d42b323c082a3aU, 0xbc4eaa363b3b8650U, 0xbd4b31dc3c946865U, 0xbbcd59e2bd119ac4U,
  0xbbec0e5dbdd234fdU, 0x3cc543ea3e1023d0U, 0xbda933463c295534U, 0xbd38c7733e3ab3dfU,
  0xbc6353533e14ad59U, 0x3e056a013d74e79fU, 0x3d780fb83cf0eb7eU, 0x3db9acb43e24479fU,
  0x3d4334fcbdae6edbU, 0x3e3a78f83d24da37U, 0xbccaa43c3dd92987U, 0x3cbeea833e1588e8U,
  0x3cee24503e309b58U, 0x3de7ea1f3e08ca7eU, 0x3d056352bd29dd29U, 0x3e0a33613da77c8eU,
  0xbd1ba0c1bdd7c079U, 0x3ddf85c63de71107U, 0x3d5bc805bad1ff3fU, 0xbd680d633e0441ceU,
  0xbd633fae3c4723d5U, 0x3d06f47d3de2c218U, 0x3df1be693d790198U, 0x3dbffd653d4f9e6dU,
  0xbd0d9167bd87017fU, 0x3dd0ee4c3e063693U, 0xbce7267ebd25df7bU, 0xbc490eaa3db17050U,
  0xbd26b81a3dfec80dU, 0x3d5f60093d7e4a7fU, 0xbbc67eeebd50717bU, 0x3e3de5b43decaf47U,
  0xbd0276debdbd6e4dU, 0x3d54bc693e05e1b9U, 0xbd9f41043da026feU, 0xbd92a3373e43fa0dU,
  0x3dcbd3cf3e1de7dcU, 0x3df996d23d9628c1U, 0x3d2a89c83d723445U, 0x3e25370a3dccd928U,
  0x3d418181bdec74f4U, 0x3e0823c63e05b24aU, 0x3c9a1c633e27d35fU, 0x3d2f8f533e264defU,
  0x3c1980bf3daf6be4U, 0x3d37b60c3d13c724U, 0x3dbbe017bc0077e1U, 0x3dae8b973e3bdd0aU,
  0x3d838010bd873a03U, 0x3df80e283e491c80U, 0x39bd60853d26845aU, 0xbd1326503e2598efU,
  0xbdfac9303dfd17f6U, 0x3df46fffbc01543bU, 0xbb27b62f3cbd800eU, 0x3e1aa6ad3e3ea3ffU,
  0xbd4a0aa7bdd7dbe7U, 0x3e12cb263df80d80U, 0xbcc4ec8e3dba2807U, 0x3bfba4a13e29efa4U,
  0xbda1f6493e091467U, 0x3d5278053cbb2447U, 0xbc849b40bd279c45U, 0x3ce778a93de34eecU,
  0xbd12bc31be2f2ea6U, 0x3e1977373dc0b478U, 0xbd925d323d4802f8U, 0xbcc80e1a3d5018c4U,
  0x3d734c153d492711U, 0x3d1ebc9a3db811f2U, 0x3d97c4033d48d490U, 0x3dc72e523dd5a7f2U,
  0xbd87dac7bd72dc88U, 0x3ddc9eac3e05f8eeU, 0xbd6e177e3dd79602U, 0xbcaeb01b3dfdde72U,
  0x3c8628093dff3c20U, 0x3d45a229bbbbbd56U, 0x3d68bd463d82614cU, 0x3cd1a69e3d9a9b31U,
  0x3d6eaccdbd821869U, 0x3d81849e3e0ec713U, 0xbd82670d3b1d76c0U, 0xbb0da5893e147b19U,
  0x3c8eac293d2d9a35U, 0x3d1aa1d83da58268U, 0x3d0b17de3bc7e47dU, 0x3cfddb833e00ef8bU,
  0x3cd59082be031f07U, 0x3e0595613b7b72baU, 0xbbfbd2613d419feeU, 0xbd0008383dfb70a6U,
  0x3d65ac7f3c274f19U, 0x3cbfacae3d95c7c6U, 0x3dd05136bd1ac5f6U, 0x3d8fdcf53e0a18bdU,
  0xbcaa8e7bbe28cc41U, 0x3dd5c86c3c8f9143U, 0xbd82439bbd8bc710U, 0xbc3daec73dedb22fU,
  0x3db3c2b73dcb402bU, 0x3d2f07af3dc1008fU, 0x3d7877cdbd18eecaU, 0x3e1d1fd73d72e08cU,
  0x3cae8a95bdc279aaU, 0x3d2cc1253d81f709U, 0xbc88f97c3d928110U, 0xbccecee83e2e0139U,
  0x3d80006cbb1ea766U, 0x3dc1497a3e24aa08U, 0xbbf617e83d2044dfU, 0x3e0d239e3d05ce25U,
  0x3d251f58bdd054ecU, 0x3d92177d3e198a83U, 0x3d6145fd3d8fe1d6U, 0xbd2e78e33e414e58U,
  0x3d877d5438e27d8dU, 0x3dfa8d653d0a2df0U, 0x3c5e53213c8bcf91U, 0x3e19bb363e1dd90eU,
  0x3dc451e1bd08bdb4U, 0x3e3ff6193df260baU, 0x3cc3914c3de01166U, 0xbc370fdf3dbab27cU,
  0x3d4c0c5e3d6fe9a3U, 0x3e283d533c86b16eU, 0x3da9f89bbd97d791U, 0x3e4248833e2ff5e8U,
  0xbd90ef73bdb78a18U, 0x3e1780b73dbaa96cU, 0x3d12f3be3d545fdeU, 0x3d85039e3e2e3be2U,
  0x3cf835033dc9a7efU, 0x3e2ae5673e101397U, 0x3c5cdaf8bc8a43d4U, 0x3d9df3003e0d710eU,
  0x3caed65ebd0b0843U, 0x3d5e50fb3d0e6e9eU, 0x3d8e94573d814534U, 0xbd97503e3dbf00e2U,
  0xbc997e463df075dfU, 0x3da5c2233d739c6bU, 0x3d8b33013ce66e97U, 0x3e2e51ee3d1549b0U,
  0xbd5963b1bc515b38U, 0x3d91aacbbbf1d041U, 0x3cf5b5883dc49e55U, 0xbc9909013e11bdf2U,
  0xbd6a74673d9fe2aeU, 0x3df5deb83d1a2a74U, 0x3d959a033c580379U, 0x3dbbe18e3e2ad92cU,
  0x3d55dfecbe38482bU, 0x3dd5afad3d25fb07U, 0xbda3dfa93dd2c19dU, 0x3d49095d3db33adbU,
  0xbcb68e5d3df4d628U, 0x3d2907753de20c1cU, 0x3c1b75b83ccc14fbU, 0x3db2aa913e450a17U,
  0xbd9be36ebe245bc3U, 0x3d7dbefc3c3e4074U, 0xbdc4bea6bd9e18d6U, 0x3d3ed3f53d8ec122U,
  0xbc1e18bf3dcd8ad8U, 0x3d18186a3ce38af3U, 0xbd14ba01bc886a4cU, 0xbd8b8b073e2d00cdU,
  0xbcdddd06be11e1c6U, 0x3e11bcf53dcb2fd4U, 0xbd0a7297bd4af26dU, 0xbd04ede03dac07e0U,
  0x3dccd9893d7ac14fU, 0x3e30d09bbc0e002fU, 0x3bf92cb03d96d076U, 0x3ddcdf2c3de546baU,
  0x3b99db06bdc1bd29U, 0x3da8a3953e29b8f2U, 0xbca590de3e4721d1U, 0xbcecafb63e087e9bU,
  0x3cfa11053dc9ca05U, 0x3dd5f6ed3d89277fU, 0xbcbb8dfd3d799971U, 0x3e277f503de83c0fU,
  0xbd538c48bdb6fbd0U, 0x3e29cbe43dfac43aU, 0xbbcb21a83db6ed58U, 0xbd22a9b23e3ee945U,
  0x3bcc4d863e12786cU, 0x3cfd6ce13e15d070U, 0x3dba6b2ebd9649adU, 0x3df80e433dab58feU,
  0xbd6c960a3c6c7adaU, 0x3e135df53e252d4aU, 0xbcc83c983de6d15dU, 0xbd9c3b463d0bdcedU,
  0x3d332a723cc30658U, 0x3e576d123d1746f2U, 0x3ad33c82bd54a33dU, 0x3d37873d3dccd7dbU,
  0x3d8b5323bd7300d8U, 0x3d9d329c3c0c7fa1U, 0xbc10e620bb33f2f6U, 0x3d1ed56f3d59eaf4U,
  0xbd7782953db586a6U, 0x3dc08c803e0e5ffbU, 0x3daef327bbb5ceacU, 0x3dcba0083e342391U,
  0x3d33e71cbe272823U, 0x3e0359db3e010028U, 0x3c1057b8bdec3583U, 0xbd0452683e08e801U,
  0xbd2bf7223d90c4bbU, 0x3dc295293d7ccc37U, 0x3d5371463cdd6bf5U, 0x3d86461f3df767dcU,
  0xbd30846fbd4bbb54U, 0x3de675443dc10df9U, 0x3d81c189bce9124dU, 0xbd0225093dbbef87U,
  0x3d8251d83e0c42d6U, 0x3cfd720d3d63e580U, 0x3e05119f3daf5de1U, 0x3d88cda33da1999bU,
  0x3d8d96dcbd894924U, 0x3d87924a3d8a6bc1U, 0xbd230c91bc7e95a4U, 0x3d31c1053e5e6ef5U,
  0x3925c1f63db021deU, 0x3d9683b83d051192U, 0x3d4f25843d9bc2e3U, 0x3e58f77d3dbcda52U,
  0x3cc8d779bd458e5eU, 0x3e11b76d3c16472eU, 0x3d226091bd7f6a6bU, 0x3cb625c4be38bb35U,
  0xbd1601993e1260a2U, 0xbcb7753abc7a94f1U, 0xbd27317dbc6072f4U, 0xbcc605753e175555U,
  0x3c11095abd8c9d3dU, 0xbd09b609be5f5fdfU, 0xbdad2cb9be8f4a6aU, 0x3d4dafbabd36d6ffU,
  0xbdfcdabf3d5c37ceU, 0xbdb62a94babba9c2U, 0x3dd1c4573d00c9ebU, 0x3e5d4057bdf7f83bU,
  0xbdd503743c611724U, 0xbe18ca4abe3136b9U, 0xbce3749c3d66775dU, 0xbe16a9d8be6c2b52U,
  0xbde0de013c7d7dd5U, 0xbdfbe9b0be10c9a2U, 0x3c90299e3ddf3634U, 0xbd4b18d1be02b464U,
  0xbdd4a1d03bb9bdbdU, 0x3cfb9a80be243345U, 0xbc012166bd1c0efaU, 0xbde26eccbe297c83U,
  0xbc1e57dcbd12e4beU, 0xbdc1f1b5bd9f26d6U, 0xbd7dc76ebd856a78U, 0x3e09b3efbd335132U,
  0xbdaee0053d526c33U, 0x3cf62a86be5c015bU, 0x3c5aaf9bbc36f2ecU, 0xbe13fda7bda5d8d9U,
  0xbbe58315bd3962b6U, 0xbe53ceabbde18987U, 0x3ce0384ebd990687U, 0xbcd1d6dfbd71ea19U,
  0xbd2ecbe4bc9157a5U, 0xbdc1a009be022bb8U, 0x3c2838d8bdfd7d43U, 0xbbd0fb1dbd9f9944U,
  0xbde2c526bcf9c63aU, 0xbdfc04d4bd1db303U, 0x3ba1a87a3c765e3fU, 0xbd2b60ddbe134303U,
  0xbe2076e1bcce19d4U, 0xbdbabb97be0d2820U, 0x3dcceea6bce35a6bU, 0xbd089befbe09b107U,
  0x3c4384763c8b9df5U, 0xbe60547ebde221d5U, 0xbd3795e3bce1f349U, 0xbdbc7073be047a4dU,
  0xbdfc76a63dd65e65U, 0xbd8043adbe607beaU, 0x3d06be653c1fdf0fU, 0x3c116806be22bc3aU,
  0xbd33cbac3cb2508aU, 0xbe45a33abd03aaf8U, 0x3d46806a3c5a39f2U, 0x3d2dfd67bdc0c00eU,
  0xbd32bbf23d8bc624U, 0x3c9e4212be5d6b4dU, 0x3d3f84b03c61a203U, 0xbdbe1f23be0efeb5U,
  0x3c8a3f29bc5dfa05U, 0xbe1ac2cdbe0c0954U, 0x3c6ac4bebcc5b7b7U, 0x3d1f3e58bde283a6U,
  0xbc925e383de832afU, 0xbc98443bbe299762U, 0x3d5a8a82bc9b5884U, 0xbc7079afbd280546U,
  0x3d095b7d3ce5f1fbU, 0xbd99b2b6bdf88817U, 0x3d8b77e23d26f413U, 0x3cfe14e5bc916d07U,
  0x3cd6011539a48e84U, 0xbdc7687cbe0c2cddU, 0x3d195ae63d3c05bdU, 0xbd683560be57f381U,
  0x3de5ef543d88ea82U, 0xbe3f2b5bbe11c506U, 0xbda40afd3d2de44cU, 0xbda505c4bd81ab6dU,
  0xbcc2d2f93df356b4U, 0xbc298668bdab8fe9U, 0x3d9de3bcbdf30704U, 0xbcdc2489be1727e9U,
  0xbc9ef7f4bc7bbef8U, 0xbd7c632ebde64544U, 0x3c8ca39d3dbf9629U, 0x3e05fb70bda83460U,
  0xbd09d5e3bbfed197U, 0xbdb15661be0d68e2U, 0x3d043a97bd8f64d9U, 0xbd19241bbdb2cd17U,
  0xbd11564d3cec7d30U, 0xbe7126ecbd763aedU, 0x3c348fc13d7becd1U, 0x3d025c01be1a0b1aU,
  0xbce685493e126e2fU, 0x3d54710abe4d2b5eU, 0x3e0d7089be1b9882U, 0xbc8cbe75bbc4fa48U,
  0x3d7984b63d39a3d9U, 0xbdc8b280be1ce8efU, 0x3d77dddbbd1990ebU, 0x3c1bbababe0d673eU,
  0x3d042cfd3e0c90e1U, 0xbb1e54bdbddd2049U, 0x3defd599bbdb6ad5U, 0xbd088396bd595fc0U,
  0x3d8029623ca648d5U, 0xbdc55d01bcb35621U, 0xbc9684833d2312eeU, 0x3ccb9405bcc5655cU,
  0xbdbc09943e676930U, 0x3cb216e3be56f3aeU, 0x3d3288933bb27383U, 0x3d78e8ddbe27638dU,
  0xbc8ef1a5bd406bedU, 0xbdc119b1bc823898U, 0x3d632d843d5be750U, 0x3c977819bd0c7949U,
  0xbbc2883b3cfb1afaU, 0xbd80efb4be28c032U, 0x3dc62771bddf982bU, 0x3cdb5192bd960658U,
  0xbd933eb63d096b21U, 0xbe388a4abcd63af6U, 0xbc9b088bbcc12315U, 0xbd9c7f79bcbad16eU,
  0xbda2bfa13d535f21U, 0x3d04cff1bd7a9d1aU, 0x3dad6363be041b42U, 0xbc89b63dbdf778eaU,
  0x3d7511b13b32adb5U, 0xbdad1082bdb3f331U, 0x3acb8028bca4fbc0U, 0x3d7cf89dbdc5d274U,
  0xbd1dff043da3976bU, 0xbdc405d0be327eadU, 0x3d64a294bdedfca3U, 0xbd815c05bd81b873U,
  0x3bf1c93cbd0565e4U, 0xbdbf5127bd774aecU, 0x3ca809edbcde89e4U, 0x3d86bb56be0cb49eU,
  0xbd9ca6c63e1b5162U, 0xbdf7180fbdb84de9U, 0x3d39583a3cde69e6U, 0xbc516c43bc9588ccU,
  0x3ba95a9cbc89f881U, 0xbdecbfb7bd6d2242U, 0xbca173653d375fa2U, 0x3c9dba99bd254606U,
  0x3c61f9a03d3b3ab5U, 0x3bd58560bded2cbeU, 0x3cc9851fbd8f2120U, 0x3d4fbe50bd65532fU,
  0x3dcbf99c3d59639bU, 0xbe31e2bfbdd2ee3bU, 0xbd4382fd3b9197fdU, 0xbd0cc609bd311cbaU,
  0x3d8078c53e601726U, 0x3d57ba1fbd685da6U, 0x3e369a513c5cdd1cU, 0xbdb39f71bd1474b7U,
  0xbda697d53d42e8ceU, 0x3d0259e2bd24d9e0U, 0x3d1b25ba3ceeb231U, 0x3d82842cbdb3afbbU,
  0xbdb5e9363d1b1099U, 0xbdcd122cbdc3b408U, 0x3e17e04ebd683416U, 0x3d24e6cebdc4514dU,
  0x3bb315d73d62d9cfU, 0xbd9f7f0c3c9623c4U, 0x3d0332933c900a2dU, 0xbd71a0dabc4bb3b5U,
  0xbd71cd753cd0c154U, 0x3b9993e8bd82e85fU, 0x3d8b7d1e3d3e00cbU, 0xbd3bf5b9bd82d58cU,
  0x3d8e6369bc83deb8U, 0xbe1daf53bdc30569U, 0x3d6dbac03d7ef9a5U, 0xbde133bbbd3cd877U,
  0xbd1e12e23d7871ffU, 0xbdfb56a5be013046U, 0xbcb487eebe0f2408U, 0xbda2470bbdb04f0eU,
  0xbda9594b3c0b60c2U, 0xbe15f97ebd3997c0U, 0x3d8bb64ebd560363U, 0xbd50df30be08a539U,
  0xbd766963bc34e81eU, 0x3c94b67abdd8190eU, 0x3cc23813bd2a93e4U, 0xbe00bdd9bd81fa42U,
  0x3ce36cdabd6c0569U, 0xbd0d67b4bc6d9f28U, 0x3d352b3b3da2f43dU, 0x3de56c1ebd29a368U,
  0x3c7253e03cbe42c4U, 0xbd09e2b9bd8266dbU, 0x3bbbab943d0ea251U, 0xbd9f0ee6be184d90U,
  0x3d25ddf23ce0d59eU, 0xbcf79a2abe0e6f73U, 0xbd2851c7bd8ddd09U, 0xbd91f9f9bdfc9e44U,
  0xbd8701473baef8fdU, 0xbd3824cbbdf69f50U, 0x3dff6144bc7e2235U, 0xbd6cabd9be03ad5eU,
  0xbe018d593cd1bc36U, 0xbd352176bcd139b6U, 0x3da05fd33d72b413U, 0x3d824124bd186395U,
  0xbc67503e3cfbe456U, 0xbd466b63bd65da6dU, 0x3d2a30d9bd7efbccU, 0xbdab76f4bc0af22cU,
  0xbc5aed723ce09fd3U, 0xbdeee537bd8fa890U, 0x3c9ddfdb3d9fcc2dU, 0x3dc698d1bdb6b26cU,
  0xbc6ef30b3d49fa70U, 0xbd4b5278bdd893eaU, 0x3d7240fc3de16180U, 0xbd6349eebde0fffcU,
  0x3cea6d1bbdb61d3eU, 0xbdf5bcb3bd466ea0U, 0x3c8e55b03cd3c809U, 0x3cc9dfd2bd1c4595U,
  0x3be21ddcbcdc32e0U, 0x3cf3af46bdcec082U, 0x3cc94dc23b0fbb62U, 0x3c150d15bd34e001U,
  0xbd4f30433a6c2a95U, 0xbe4fd1b0bdf3de12U, 0xbd15a1bb3c2edcb3U, 0x3a8f4c893c8a45aaU,
  0x3ca419cc3dfcaff7U, 0xbb631e12be19f5daU, 0x3ce311c3bd3a04deU, 0xbdbb31ecbdf821e3U,
  0x3dfcfe1cbc920667U, 0xbd9af3bfbe01d4c4U, 0xbacd1e883d530acdU, 0x3d05b757bdbe85e2U,
  0x3c8c20523cf24abfU, 0xbe16a3d0bd3aede5U, 0xbc7023d2bcce67dfU, 0xbd13fb5ebd5bf1d3U,
  0x3c51dc63be1722ecU, 0xbe0ddf96bc8b4885U, 0xbd9034a33c37b827U, 0xbd853c823b8e2a6fU,
  0xbd8da07f3d176003U, 0xbd3d98abbc9cfc91U, 0xbdd1637ebc6d5b12U, 0xbd5fa4f9be0457ddU,
  0xbb1d6388bdbfe510U, 0x3d0e3fa1bda3933cU, 0x3d5901c5bdca5b60U, 0xbdd60c883c62f01aU,
  0xbd0169a23e07f753U, 0xbdf1d07c3d940a87U, 0xbda3f03cbbf86a7eU, 0xbd82b345be19f49eU,
  0x3ce88055bda14106U, 0x3c946a6039cd8db2U, 0xbc9b8846bdde97c4U, 0xbd9632c5bd3d828aU,
  0xbd4977283d346961U, 0xbb9655653d91e5dcU, 0x3c778590bd774794U, 0xbd68b7dabe21750aU,
  0x3cc0e8323c8a3d50U, 0xbd31ad41bb9ecaaaU, 0xbd95b26f3d8a071dU, 0xbe15b2123c493920U,
  0x3d88cfef3d8991b0U, 0xbdc88d733d6056dfU, 0x3d6756f5bd611cb2U, 0x3c22e205be1d3ff5U,
  0xbaf891edbd9ffad1U, 0xbdb79be6bd8947faU, 0xbd87280cbd616437U, 0xbdcbfaedbd3d89c0U,
  0x3d11a2863da26ed0U, 0xbe18a269bce03b8dU, 0x3b44a9fe3c3dc851U, 0x3d365e44be31a162U,
  0xbdb557403cd8a39aU, 0xbdd4c39fbbd75cb2U, 0x3d0da356bd033623U, 0xbd64c684bd80ae03U,
  0xbe205bd13dec3b45U, 0xbdd62b31bdb6d605U, 0xbd673159bde795afU, 0xbd88b2bdbd2fb823U,
  0xbb0ae88fbddae3d9U, 0x3d35026f3cb679e5U, 0xbd796b80bc938694U, 0xbd1102603d1ec9c9U,
  0x3d1bc1693e2796afU, 0xbd9d04f2bd315ea2U, 0x3ddd3ff1bda13e06U, 0xbc5c75f8bd7e9c81U,
  0x3d3b4deb3d170ee2U, 0xbd97c31cbc1f9152U, 0x3d131008bdad04b0U, 0xbd8d80f3bd8010e0U,
  0xbc842e913dc533eaU, 0xbdddff18bb8adbd3U, 0xbd4666dabd9e18e9U, 0x3bb75da9bdb02e07U,
  0xbcb6d7ecbc67804eU, 0x3d9d82d439085961U, 0x3d1d639fbb80b3eeU, 0xbc1d8c68bd8d5f8bU,
  0x3d80f1863dc2b4e7U, 0xbda9c253bcf215f6U, 0x3b24665fbe1c9611U, 0xbb933f5dbe42529fU,
  0x3b8929eebcffbc49U, 0x3ca277bcbd38a5a5U, 0x3d89a08e3d8547e2U, 0xbd077e023cd1649cU,
  0x3bbde3bf3dd7b1feU, 0xbc8002293d2e5b0dU, 0xbd632dabbdd1765bU, 0x3d67c617be1b17b6U,
  0x3c8abde1bdc5e2cdU, 0xbbf4b4fbbcf5feebU, 0xbcb77ff73c9b5a79U, 0xbd0c42cf3ca3a5bfU,
  0x3bcd28ad3d9a1826U, 0xbd23cbc93d5c8c37U, 0x3d46c8edbdb6f408U, 0x3a1c8f1ebe37128cU,
  0xbbe10173bdb228e3U, 0xbcfcb699be09dc30U, 0xb9bfa29dbde056abU, 0xbd319de33b155da9U,
  0xbe124cb43cdfbc1eU, 0xbda9368b3c00e058U, 0xbd6e3204bd6901e3U, 0xbd864c9dbe472c03U,
  0xbd851bb0bd2ccf2dU, 0xbda40633bdd6835cU, 0xbbdbd3cfbde13c56U, 0xbd5a6f55bc9ec841U,
  0xbdc6e8f93d94202dU, 0xbca3d52d3c5bff9bU, 0xbd0639cc3d54c6beU, 0x3cd65ec4be15c7d0U,
  0x3d9290b8bd726567U, 0xbc6bce92bd42e71aU, 0xbd36b40b3c285565U, 0xbcc9204cbd436da1U,
  0x3d95862e3de97823U, 0xbdd7f749bc3a3062U, 0xbb7b8c48bd1818aaU, 0x39cd6cd4be4428d8U,
  0x3d55820abd8d9e09U, 0xbdfb94f93d2e2728U, 0xbbd4b6e2bd5b9a30U, 0xbdc6a721be0c88b1U,
  0xbe03ad653cfbf225U, 0xbe256090bdebcaf5U, 0xbc3cdd0ebdc54868U, 0xbb88bfcabe14b676U,
  0xbc9905b5be2d305fU, 0x3c96bd60bdb60939U, 0xbd782f3a3d75b3fdU, 0xbd847540bdb159a2U,
  0xbdad5d343e0784c4U, 0xbd8a4e1b3ca90b37U, 0xbd348101be37e661U, 0xbd9376afbe19922fU,
  0x3d496e0b3c4556c8U, 0xbcd6987d3cf49e61U, 0xbd498efe3d5290ffU, 0xbdbdaf0fbdc08342U,
  0xbd9e3c683d978ae7U, 0xbda57412bd8c8179U, 0xbda13a39bd2f0127U, 0xbd228641bcaf9ba4U,
  0xbd7e48113c8423c3U, 0xbce37d80bdb010f7U, 0x3d92d7473d24e100U, 0x3c9d1d9fbdca40c5U,
  0x3d1f8dbf3d0f496bU, 0xbdc2ad54bd868100U, 0xbda58b9a3c9c3affU, 0x3d11d17fbe1de8b8U,
  0xbd823943bc72484cU, 0x3ce1a9b1bdbd2b58U, 0xbce7f5833d6c020fU, 0xbd4114acbd992b7cU,
  0xbb998f273cebed14U, 0xbe3d59903d396744U, 0xbcb0b84ebde21905U, 0x3d07adc6be1ff0eeU,
  0xbc262b2fbe1d120eU, 0xbb4b04b9be00a3faU, 0xbc637428bce6a1aeU, 0xbb86adb9bde62fdcU,
  0x3b688cc53d596c1bU, 0xbc0505833c064bc5U, 0xbd9763eb3d8b2b7eU, 0xbe1ff748bd4a02a8U,
  0x3c0d0548bd4934c4U, 0xba8afad2bdf302dfU, 0x3db239f5bd13244bU, 0x3d51170bbc66d32bU,
  0x3d47f07b3d25ececU, 0xbe4474c63d551060U, 0x3da1869f3d54e08fU, 0x3d3d2371be2317dcU,
  0xbbccd0113d7f554fU, 0xbb3217e3bd4102f9U, 0xbdb3c9debcd226aeU, 0xbd4e02e93cdca226U,
  0xbca8ddcc3d29b3d6U, 0x3d3070b03d666494U, 0x3c5db2c3bd1809faU, 0xbd75c438bd19aea3U,
  0xbd30b1fabd045402U, 0xbdcf777dbe13a414U, 0xbd590858bbd42a30U, 0xbcc5b1f53d3cd812U,
  0xbd528b2b3d5a8c75U, 0xbd637debbd8662ecU, 0xbd2049c1bda61099U, 0x3cad4519be201f4cU,
  0x3c874b23bd96272aU, 0xbd7f6826bdbb43feU, 0x3c9855fa3cef9c97U, 0xbe012d92bcd2b431U,
  0xbbfaa6293d81a081U, 0xbda0a2e2bc76af7aU, 0xbcf47e38bd89543bU, 0xbd718453be385befU,
  0x3cb58a16bb1825b2U, 0xbdd5878fbcaf2db7U, 0x3d06874fbd550421U, 0xbdb01499bd831fdaU,
  0x3d31f7e73d90e437U, 0xbe48a4063d1b5ecbU, 0xbcefad543d21398cU, 0xbdd6825dbd419d73U,
  0x3dbf38d6bd305859U, 0xbde00dd3bdf151d7U, 0xbd01c9653cdf4a9eU, 0xbd675061bd39a233U,
  0x3ca8bcb83cee0b4fU, 0xbcc3c6e934687800U, 0xbcf85c5d3de4be74U, 0x3b034279bdc29212U,
  0xbd4a661fbca9dfbeU, 0xbc8c7281bd8f622dU, 0x3d31c7823d0816a7U, 0x3d328223bd975ec9U,
  0x3c29ca863d0d10d3U, 0xbd8a26843d6d5250U, 0xbd2f39c23daad243U, 0x3c52f67dbe053db3U,
  0x3b36cadabccbabbfU, 0x3d24b89a3cbfb2f2U, 0x3c4feaeabd84bb32U, 0x3c31d26ebd0a1d5cU,
  0x3ca3c0a83d33bc8eU, 0xbe2879c33c7f52e0U, 0x3d93cea13c767b61U, 0xbd75f83fbe3f1707U,
  0xbd29beb7bd1ffb9bU, 0xbdc5ce38bd887814U, 0xbd04f409bdb99b4aU, 0xbda569993abb9a5aU,
  0x3d99fda33d7a897cU, 0xbd2cc56c3d88a872U, 0xbd276a8e3d89e699U, 0xbd8fcc693e20c0e8U,
  0x3d8133b0bcf5d5cfU, 0x3d814fbe3d90089aU, 0xbd11d380bda4a7bbU, 0x3b9c9ac13d81ca0cU,
  0x3d94a73cbd367831U, 0x3d04d12b3db33a3aU, 0x3df8619e3ea83762U, 0xbb358c313dc27557U,
  0x3e8e9b4abb560b6fU, 0x3e2ab331bc6f1f7eU, 0x3d7559cebe003bc6U, 0xbe116b543e0df395U,
  0x3deabc0e3d4f2a6eU, 0x3dd81f573e4e08f7U, 0xbd4ed3bcbd9b4916U, 0x3d8486d23e23c08dU,
  0x3e2e45f03cbdb1bbU, 0x3e07b26a3ddf6ae2U, 0x3e0fc3dabc596c8dU, 0x3e33edf43d82a0ceU,
  0x3e6058873c1cc402U, 0x3c8a79823e2fc021U, 0x3da401df3da463ddU, 0x3dce9d703db76943U,
  0x3da0daddbcc95247U, 0x3e4e1e783d0a7aafU, 0x3d5d4f2dbcbf15e0U, 0x3d3d71f03dece36fU,
  0x3dad34f6bd5b8892U, 0x3ccc46d13dc1609dU, 0x3d8b596e3e0b2d8fU, 0x3d3b01863e3fde8eU,
  0xbd8644d63d067af0U, 0x3e11b99a3dd0f763U, 0x3cddfa1c3da4f3adU, 0xbc5c4db83e11f7ccU,
  0x3db3701b3dc46bc2U, 0x3db635483e251c3dU, 0xbca57705bdbb2ef4U, 0x3d9f82d13d78a0a7U,
  0x3c15bb993d55f9d1U, 0x3e0d67483c912a65U, 0x3d604219bd54e5b9U, 0x3daef5a83e0518a7U,
  0x3d95a6ee3cb0ecd6U, 0xbbdff3493dfc77beU, 0x3d21fafd39a53c56U, 0x3daaa75f3e627f4eU,
  0xbcd8e01b3d7515beU, 0x3dd4307a3bdca915U, 0x3e06fa9bbb702b08U, 0xbc65f7b73df1c7d2U,
  0xbd17960a3ce94fb3U, 0xbddd4dcb3e286528U, 0xbd56d17a3d740418U, 0x3c43ee413e5d8883U,
  0xbb98d3b8bd4917daU, 0x3e26f32c3e04eadfU, 0x3dd8ff033c553a3fU, 0xbcbfafdd3d69ed49U,
  0x3dcc02b2bd9bb731U, 0xbd24d6113e295fe9U, 0xbbd666693d016e6aU, 0xba9acc333dee3450U,
  0xbcf09c50bcf7d4ceU, 0x3e0b9a8f3dd88b17U, 0x3de23f893d64b7ecU, 0x3ccb72d23daebc51U,
  0xbd1bdae8bd4bbcb5U, 0x3d2f31da3e4206aeU, 0x3d34139abd62066fU, 0xbc5ccdb53d55c412U,
  0x3d9bfb0f3ca91e48U, 0x3ddae6a2bc5185f5U, 0x3d9bdfbf3d4cfdebU, 0x3d5f9fbd3c1e7a9fU,
  0x3e0edbd6bb0fc1f0U, 0xbb92d66e3e1a3b4aU, 0x3d4da7debce17fbeU, 0x3da5ef863e1576a4U,
  0xbd942ca83d125fc5U, 0x3e2131363d11a658U, 0x3db4fbe63db5b759U, 0x3dd050803d403445U,
  0x3d4f49ce3cd74e28U, 0xbc81c79e3de539bbU, 0xbcfa2dd2bd1e2a8dU, 0xbd9750263ddbfe64U,
  0xbd000c123c6652e4U, 0x3dc716573e0cff79U, 0x3dd9025dbd463868U, 0xbdb9ed4f3ce0e14fU,
  0xbccb9633bb5eac7aU, 0x3de200123dda7e09U, 0x3d7b5e3dbbcdbb54U, 0x3c81e5ce3e3e55feU,
  0x3c087018bc166c8cU, 0x3e0ee0a43dee52a0U, 0x3da1d1b93d292047U, 0x3b9a29683de9ed03U,
  0x3cc78d89bd4c97ceU, 0xbd6c6cb73d88d285U, 0xbe2658b33dac32eeU, 0x3cd5328c3e043a70U,
