/**
  ******************************************************************************
  * @file    network_data_params.c
  * @author  AST Embedded Analytics Research Platform
  * @date    2025-07-25T15:26:17+0800
  * @brief   AI Tool Automatic Code Generator for Embedded NN computing
  ******************************************************************************
  * Copyright (c) 2025 STMicroelectronics.
  * All rights reserved.
  *
  * This software is licensed under terms that can be found in the LICENSE file
  * in the root directory of this software component.
  * If no LICENSE file comes with this software, it is provided AS-IS.
  ******************************************************************************
  */

#include "network_data_params.h"


/**  Activations Section  ****************************************************/
ai_handle g_network_activations_table[1 + 2] = {
  AI_HANDLE_PTR(AI_MAGIC_MARKER),
  AI_HANDLE_PTR(NULL),
  AI_HANDLE_PTR(AI_MAGIC_MARKER),
};




/**  Weights Section  ********************************************************/
AI_ALIGNED(32)
const ai_u64 s_network_weights_array_u64[8202] = {
  0xbd9de2263e3f9148U, 0xbeedaa55be6420d4U, 0x3e828310be99c076U, 0x3dce32933ef609c0U,
  0x3ebe98983c4e7963U, 0x3ea866123dda68adU, 0xbe8c57543d12f35aU, 0x3d53c828bd441109U,
  0xbe84ab94bcc5ad39U, 0xbe845c963f1128d6U, 0xbea477c7be8b25f3U, 0x3f20f7a0bf0ea9a2U,
  0x3e9fa4b63f01a905U, 0xbf1b0f1e3f1ff6b7U, 0xbec896ae3d041d7fU, 0xbebe7fb63e3fdfdfU,
  0xbe605c6a3dc6bf85U, 0x3d9175a33c8d0115U, 0xbe13a367bc92c3d6U, 0xbe622a89bdf9aeceU,
  0xbc8ec251bbab469dU, 0xbcad3808bcd8806fU, 0xbc92610bbcac243eU, 0xbd6abd68bd32c7a7U,
  0x3e2cbc5fbd56097dU, 0x3e1034223e2e0dc0U, 0x3dec62ec3e3b91ddU, 0x3e4d4ae83e294914U,
  0xbe1e17c23d8a827fU, 0xbe80215e3ddcf24eU, 0xbb85be113ca6553eU, 0x3cb315803e6aef42U,
  0x3d98aa56bc8b46a9U, 0x3e58293f3c800c34U, 0x3da4ed8abeb27eb5U, 0x3e24a3b2bdcc875aU,
  0x3d264e7ebe1ea45cU, 0x3e8f138b3e45481cU, 0x3e3edd5abd883e75U, 0x3e45eade3e875689U,
  0x3ce0ed10bda3a84cU, 0xbe2fe9853dedd0c1U, 0xbc6ade863d0ae9b1U, 0x3e043ebebe1931afU,
  0x3e87a7243e08ad04U, 0xbec94eb43d7b9dd3U, 0x3def7a95bd3ce5b7U, 0xbbe8f3babe05e724U,
  0x3de893663e78640fU, 0xbea89296bd2b7ebdU, 0x3dd357af3b80116dU, 0x3dc55c72be300018U,
  0xbd3f9c173e637440U, 0xbe8c5d52be4f5831U, 0xbe20079f3ce96a52U, 0xbd1d1f4bbc64bc53U,
  0xba191c713e764bccU, 0x3b91671bbd53b1f6U, 0x3b2af9313d3c1214U, 0xbdad20f63cddfb28U,
  0xbe28fe1dbcf8ac82U, 0xbe960ad1bd27b3daU, 0xbe170801be001886U, 0x3d3a6124be8673d9U,
  0x3e92930e3e1c40dcU, 0xbdd4db953e4c5313U, 0x3d7a5d693dba9ba5U, 0xbde6c9d1be61b12cU,
  0x3e32caea3cf56b60U, 0xbeadbca73e04abcfU, 0x3b909c58be52ffc0U, 0xbdb8db45bdf1f609U,
  0x3eb3414bbded8e30U, 0xbde5972f3e725f4eU, 0xbdebc048bd229c49U, 0x3de6c04a3dd2280fU,
  0x3e4b912c3e350a61U, 0xbe86f7a7bdd61f55U, 0xbe1dbfac3dd95277U, 0xbe2c414ebe83a802U,
  0x3e2e81fd3e800017U, 0xbca940be3e3a15eeU, 0xbd39698d3e56aaa1U, 0xbddf76b5be2ca49cU,
  0x3e069b773d9219a7U, 0x3e4a24e93d2f0cd0U, 0xbdd79003bd994a9eU, 0x3bf37ed43e16702bU,
  0xbe2f28b0be3d9258U, 0xbdf3f7563e89095bU, 0x3e222baf3d0d3a6bU, 0x3e5c7bf43e8098f1U,
  0x3e66850ebdc93a6cU, 0x3db38c62bddf2925U, 0x3dead9a5be7c4f5aU, 0x3dd6d504bd07abf2U,
  0xbe9b05213e382c01U, 0x3e81cd53bde3e20cU, 0xbe9ee4f93e8af98cU, 0x3d251493bdf3707cU,
  0x3d90b9ffbe476790U, 0x3e150265be98d460U, 0xbd4c302abe1308ffU, 0xbe6b3717be49ca94U,
  0xbdfcf66bbdc0d73dU, 0x3d96bbcbbcc0c073U, 0xbe72f2bbbe636410U, 0xbddf074a3e3a3f13U,
  0xbdd907493e4b1bc7U, 0x3e7236703dd38edeU, 0x39cd734b3e896850U, 0xbe1d86fc3ec80cb5U,
  0xbdc01b56be27dc6fU, 0x3b5932f63dc36809U, 0xbe07a16a3e592930U, 0xbe97f7d6bec2fe9aU,
  0x3e7eb9b5be316f0dU, 0xbca8a238be22b657U, 0x3d446b85bdd168ccU, 0xbdb1a6fa3d8cedfaU,
  0xbdaba20e3dccfe88U, 0xbdf449513d9d5b32U, 0xbe8a20e03d1edc45U, 0xbea4cab4be2ee872U,
  0x3e29c791bd8473dbU, 0x3e4c5b313e1048eaU, 0xbe1a3c4d3e315337U, 0xbe47fa52be0d59b9U,
  0x3e5902a9bd85e673U, 0xbecbab873dd63bd7U, 0xbe1b34af3e6777f4U, 0xbe0d955bbe3d22a3U,
  0xbe05933bbeac1639U, 0x3b977ecbbe684736U, 0x3db0d8073e76717bU, 0xbe6095a53da4e3deU,
  0x3d666c133d95dc78U, 0x3e214c903e13094bU, 0x3e121fd3be2f2227U, 0x3e5c00eebdc569aeU,
  0x3c9ba8f93da038baU, 0x3d1b70813e324ea5U, 0xbe2f6811be3271faU, 0x3e1e8d1dbdbadc7aU,
  0x3e191fd2be31b668U, 0x3e751e0fbea2e1c8U, 0x3e3e8b6f3ea10c4eU, 0x3c29ab603e9fcd78U,
  0xbe2c1113bca80141U, 0x3e8cdb5d3e3c566bU, 0x3e66dfa13e205da0U, 0xbe0f8f8a3c46ba02U,
  0xbe6185b1be1431d7U, 0xbe229cffbd0e42ccU, 0xbb672e3b3e2d92adU, 0xbe82a26bbdf0255aU,
  0xbde0e9fbbcd8b5c1U, 0x3ed81b54be92f367U, 0x3e30604b3e1201e6U, 0x3e35dce13d782e86U,
  0x3e3c799d3dd269bdU, 0x3e6734ecbe063c7aU, 0x3e1279fa3d93533bU, 0xbdc0a9d13de58090U,
  0xbd735e08baf756b3U, 0x3e6e04c93e0acc09U, 0xbe415438bdb8b2b7U, 0x3e9a19d53e5d5c27U,
  0xbe72c7013e516b73U, 0x3d47a48abdd505c8U, 0xbe96d920be1720d8U, 0x3d88c1d03d92383cU,
  0xbe7b253b3eac2237U, 0x3e0352e9be3c859fU, 0xbb69d0e83dfceda9U, 0xbc41504a3e787fb7U,
  0xbdc5cf4e3d7f2323U, 0x3c4d1e773dfaf076U, 0xbee37f0e3e13e180U, 0x3e95edd3bc77477cU,
  0x3e1366773cf36d82U, 0x3d5389423d4df4c0U, 0x3dc583603e25d794U, 0xbc743d8d3decca54U,
  0x3e320a29bd729b5eU, 0x3e85befbbdab4c14U, 0xbe544c5ebd9db817U, 0xbc973a42bdf559f2U,
  0xbe5be0da3e8c33f5U, 0xbe2bd15bbe82e116U, 0xbde220f8bc9d9f82U, 0x3e5e25433dbc6711U,
  0xbd3683573e63568cU, 0xbe7e2ca73d54cb18U, 0x3c4e7b6c3e1c283aU, 0xbd75b3ac3db9446fU,
  0x3e36961a3db471cdU, 0x3d45693dbe10e802U, 0xbe056d463b2befd5U, 0x3de7068e3e90339bU,
  0x3cc75035bdb0bdf9U, 0x3d54aff13dc07883U, 0xbd57e4143dda9466U, 0xbd710058bddfa9beU,
  0x3dcb61ad3e4fa5faU, 0x3ce3eb01be237738U, 0x3e9d4a663e71c4a5U, 0x3e16d692bdd50ea8U,
  0xbdbb5c89be0699faU, 0xbe3ed1e7be671cd2U, 0xbef4d610bd7c7588U, 0xbcd9b2c93daea011U,
  0x3df9598a3e0bfe4cU, 0x3dd461f4bbf40a39U, 0xbdb5f93dbe81dce1U, 0x3d04a1dbbe947d3bU,
  0x3c9133a33bc508e5U, 0x3e796b40bc929394U, 0x3d9cd2a83d6dbccdU, 0xbdd280fb3dbbd2c8U,
  0x3d7f3b9f3e08b2a6U, 0x3da7d9d0be0c305bU, 0xbcbb45953e445d20U, 0xbd784fe8bc59b4f4U,
  0xbe30a5be3e5ad38dU, 0xbd8933cebe4963b0U, 0x3e7824673e1b658eU, 0xbe2d64b53e46edf4U,
  0x3e7ea3afbe251efeU, 0x3e8a90d5bdcb2db4U, 0x3d26aeb63dff5d53U, 0x3de7913c3e6e7d86U,
  0xbd2a8245bde0b82dU, 0x3e7a0b5dbe8a379dU, 0x3e01e7aabc47e6a0U, 0xbdf0961b3d5e1258U,
  0x3e86498bbe096fd4U, 0x3e410db7bc31209dU, 0xbddf6024be0bf071U, 0x3dcd6f6b3eaf189fU,
  0xbe78e8c33e2c51c1U, 0x3d1184cabbf6313fU, 0x3e211b4c3d4ca053U, 0x3e0a8e45bd526cc6U,
  0x3e40d0cebcb4d5ebU, 0x3e1544603de80b48U, 0x3e73399e3e351240U, 0x3c96fed6bdc02a9dU,
  0xbdcbb4863e0b3e4cU, 0x3e46aa40be650bbdU, 0x3e123c113eb2fa13U, 0xbdb174e23cf5fd56U,
  0x3da552143e1a5693U, 0xbe48c1cd3e3b78fdU, 0xbd04cb643e02d8f2U, 0x3e82acea3e819e2cU,
  0xbe1ac287bdab9846U, 0x3ec58a5f3dd8345dU, 0x3e93f6973e6abc24U, 0xbe375ce73e0a2addU,
  0xbdfb31b4bea192e7U, 0xbdfb9a5b3df8d574U, 0x3e1995d33e25fe64U, 0x3c8bb781be3b50eaU,
  0x3e0beb213c84fccbU, 0xbec4b7d43e219730U, 0xbd5333a5bb91046dU, 0xbe231339be24795bU,
  0x3d30c99abdbbb916U, 0x3d924628bc839c51U, 0xbc02949d3e6e0298U, 0xbe24376a3e0e1bb1U,
  0x3e4ad24dbe4cba29U, 0xbe849a9b3cb3cb38U, 0xbac4f7573d68eab0U, 0x3cd55065be6f906dU,
  0xbe1ac706be0e23abU, 0xbe6f23063e533ac0U, 0x3e2d50593cf9919aU, 0x3e583504be7132d4U,
  0x3e446c193e1f8735U, 0xbb958573bd5d48a0U, 0xbcef677b3e51aabbU, 0x3e2e620bbcad4b9eU,
  0xbe13b1e8bdc211b3U, 0xbdd3901e3cdf5b86U, 0xbe255bf3be82e3d3U, 0x3e6ef76f3d8fa369U,
  0x3da987f2bcd97c50U, 0x3d9757db3ba9fae8U, 0x3e526090be600d0dU, 0xbe3a1a8a3e5365b7U,
  0xbdcd6ae83e41a4f5U, 0x3e11227d3ea34a99U, 0xbc4272653e3dd859U, 0xbe7649c0bd8f44b6U,
  0x3e94503b3e1cba4eU, 0xbd8018a3be8e1938U, 0xbe4c3e4dbe85880bU, 0x3db37f203d823530U,
  0x3e3bc1003da38126U, 0x3e953c5b3e5b51adU, 0x3d3f52263d91bc99U, 0xbd18d177be7c6503U,
  0x3e219f86be1219afU, 0xbe8e28f33e561d49U, 0xbda259af3de6d3fdU, 0x3d1c66ce3ddeb81fU,
  0x3dec67e3be0874a7U, 0x3d35721b3e7db979U, 0x3e352bd6bcc4669eU, 0x3d1188d4bcc068e0U,
  0x3e1789b03e076c53U, 0xbe0611abbdb5c5b0U, 0x3e432023bc63c9a8U, 0x3e0ac0fabe89928cU,
  0xbdd18708bda7bae2U, 0xbe02c7113e58de3bU, 0xbe7c7a3fbafd17c2U, 0x3e5e4f41be52af75U,
  0xbdb83a7b3e0835cfU, 0xbcb3b83abc6bceebU, 0xbcda11413e298f19U, 0x3e16a4f0bd51264bU,
  0x3d67ac503da19e2bU, 0x3e383a42be7cc733U, 0xbdb3b87bbeaf65f0U, 0xbd8e6b2e3e773e93U,
  0xbd630d05be35f53fU, 0x3e256b4d3d7016bfU, 0xbe40c2e2be17f220U, 0x3d56fc6c3d7bae0aU,
  0x3d91a9ac3db5e4dfU, 0x3dcd27053c0516d7U, 0x3e5b42ea3e05f1e8U, 0xbe80c5953e904362U,
  0xbe46503b3d453366U, 0x3ebb664a3d911cfaU, 0x3e757dc93e06fafdU, 0xbd8c1be33cfd17a5U,
  0x3e0c5970bd453b62U, 0x3e625d03bd4d5a53U, 0x3db3765d3e01c4a4U, 0xbd77221b3b91f2fcU,
  0x3df3db7bbd8a9120U, 0xbca52bb83d8e18fdU, 0x3c5ee407bd6b9ae1U, 0x3cb5bf623e00ae1dU,
  0xbd4187673d217f33U, 0xbb9cfb6bbd753207U, 0xbd1284123d857c2eU, 0xbd430a55bcd3b33fU,
  0x3d150dca3dba08d5U, 0x3e20dac8bdc0b289U, 0xbc0aff2c3db96d2dU, 0xbe19ae1f3e011fbfU,
  0xbc974a143d326e3aU, 0x3e0dfa733dfb327dU, 0x3df2ac50bba5f67eU, 0x3db22cc53d7e5810U,
  0x3d4d014f3d82d8bcU, 0x3e777397bdb8d0abU, 0x3d1b3e203d288467U, 0xbda1d9ce3db72a54U,
  0x3d08a8b4bc3230cdU, 0x3dfd00d13dd754feU, 0x3dae31e93d62d2b4U, 0x3e01a9dc3d81837fU,
  0xbdb46eb43c8d72aaU, 0x3df80a49bd3d1463U, 0x3d4adc063d8b076bU, 0x3bacb3f13d9341b1U,
  0xbcf336893d548828U, 0x3cd1ded33c9b271aU, 0x3d8c25303d2b4e71U, 0x3e37defb37efa824U,
  0xbd47d3813c438ebaU, 0x3e6eebfdbe066288U, 0xbcdab6243d7a94c8U, 0x3d0b11413e2b4858U,
  0xbca419eebc13bf01U, 0x3d288aa03de37338U, 0x3d546cf0bc695f80U, 0x3e0c856f3d0aa4a6U,
  0xbc9cff233db46b99U, 0x3e5bc578bd6cb4a2U, 0xbcbbbbd03db6b067U, 0xbced95033d4fedacU,
  0x3d230af73d7660a0U, 0x3ddb74a53e1d28c6U, 0x3d9a59f4bcde9d1eU, 0x3d8b6aa43d0d9e6cU,
  0xbc9e16033cda02bfU, 0x3e6a55023c3da578U, 0x3d11322e3ccad88aU, 0x3c0b33ff3e1461baU,
  0x3c9489e73cf3f236U, 0x3e0ed3723dbdcd0fU, 0x3da30f6fbd8f1e80U, 0x3cf88d8b3d54ca1dU,
  0xbd5bbaa23df87764U, 0x3e9eccb03c1dce48U, 0xbd5b58b2bc8ab586U, 0x3a9cc3e53d77ca15U,
  0x3d42c437bcfb77afU, 0x3d8a04293df04a34U, 0xbcd07665bd593cc8U, 0x3df63e12bc126e26U,
  0x3cb5aea83d8443d5U, 0x3e400463bdb9f9d8U, 0x3e09693d3d723a25U, 0xbd98cfbd3d7d2364U,
  0xbce558bd3cb16b60U, 0x3e0b879b3e2912d8U, 0x3c3d158f3be2c64dU, 0x3d18ad703be9615fU,
  0xbdc34b60bc91b612U, 0x3e40d7c0bd0ae785U, 0x3d7b627f3cc623d4U, 0xbd0a8b483de1d015U,
  0x3d9b2e7ebd32713cU, 0x3e2ce4ac3cf14f9aU, 0xbd38e462bbbe7926U, 0x3d844cf23d88dbbeU,
  0xbd095a2f3e003569U, 0x3e3b3a66bd305d03U, 0xbcbc27933e0456ccU, 0x3cf0fb323db0c60aU,
  0x3cc24dc6bd19f2d3U, 0x3da6da993ddd9c75U, 0x3cf6d59abac961a8U, 0x3e10ececbd09ab3bU,
  0x3c6251553c3438d3U, 0x3e3ed0b2be0aa6bbU, 0x3db40e233c520908U, 0xbcbbf7a03e08eb6fU,
  0x3dcf92e3bd544c93U, 0x3e0dd6963df89463U, 0x3d97a828bbb2ae61U, 0x3d38088fbd94464fU,
  0xbde7275c3dfe5942U, 0x3e7e7b22bd07ab92U, 0x3c7a01abbc659fb5U, 0xbdd58b223d9fbb1eU,
  0xbc41ad303d70da7bU, 0x3df5871a3dbb2bf7U, 0x3cc89e083d9896bdU, 0x3e2ef25a3d4a1424U,
  0xbd79218b3d07d23dU, 0x3e9d3df1bd254e2dU, 0x3dae07c63d317a9bU, 0xbe1163a23dea476aU,
  0x3d393c04bd91defaU, 0x3e0ae8333df166f0U, 0x3d077a453d756ddbU, 0x3e08446e3d33d26bU,
  0xbd98e4d43da721f2U, 0x3e905fd3bdd9ebd0U, 0x3e0f534f3deed0c5U, 0xbe1446ab3d5528dbU,
  0x3d531ff8baea74a4U, 0x3d9c5bcf3dab9872U, 0x3d8ef59d3ce59e6eU, 0x3da162e5bcccf6d5U,
  0xbd62530abaaac450U, 0x3e8888b8bdd9a7e5U, 0xbb856c533d8ead8fU, 0xbe14eada3dbc7af1U,
  0xbae38ec83cbae6f7U, 0x3dfd71d33cf27ecaU, 0x3c7381243d4bc9dbU, 0x3e04457438aa158cU,
  0xbd6b55073c0153aeU, 0x3e5f375dbdccf164U, 0x3d855a693d77d417U, 0xbde1518f3e15cce3U,
  0xbb82bec1bc97621eU, 0x3e12cc093d11d9d4U, 0x3d1e55e7bd26dc21U, 0x3e21361c3cd5b089U,
  0xbdb7ea75bc71432eU, 0x3e630368bc182677U, 0x3d46dc203d99c61dU, 0xbde0f5783e157ac6U,
  0xbc9003f53d4f3ed5U, 0x3e008e133e0bf2aaU, 0x3b8703e0bb5f4b99U, 0x3d57ce13bcf4988bU,
  0xbd58526d3d8be845U, 0x3e3ff84b3a82d246U, 0x3d8890f83dac98caU, 0xba1bb9b23e14706cU,
  0x3d9358573cbe9682U, 0x3e3415fa3ded075eU, 0xbabcfc253dbb1d28U, 0x3d580f833d0537f0U,
  0xbdc95cc93d82a0d4U, 0x3e77cc7dbd98aedfU, 0x3d668f493d5b7746U, 0xbd986a543db06f4eU,
  0x3dbf24c7bdd02c68U, 0x3e2e85183df8c123U, 0x3da3f5cfbd24d7ceU, 0x3d9200073dcbc32dU,
  0xbdc3ea383e09c991U, 0x3e1b8f543cd10cb2U, 0x3d85e0293daf5ee5U, 0xbe10aa6c3e2b7607U,
  0x3d1c2886bdd13014U, 0x3ca06c073c8ae87bU, 0x3dddc29f3de497cdU, 0x3dd73506bc656916U,
  0xbcffc3f33cedd119U, 0x3e950910bd690b18U, 0x3dca36143e003aa8U, 0xbe1179a53db4226bU,
  0xbd421addbd739cb6U, 0x3dd42b693df01d2aU, 0x3ceccb743bcd3689U, 0x3dba6ff83d4ca188U,
  0xbdd0f3c53de207faU, 0x3e3ebf2cbcfc1369U, 0x3da982943d46e2f1U, 0xbd9bf3053dfa357aU,
  0x3da00218bd9650cdU, 0x3e249bd03e048498U, 0x3d9be9e03d0faaa2U, 0x3ddceac1bbcc0724U,
  0xbd29e4483de5a4d9U, 0x3eb61231bdbaf3dfU, 0x3d871619bcdfc532U, 0xbdc2832d3d900d02U,
  0x3d7902b4bb1c4b01U, 0x3dc478b93db52a66U, 0xbcde7669bae7d030U, 0x3d9edd813dacbe97U,
  0xbdf9d75d3da97437U, 0x3eb678c83c413648U, 0xbc6990a13cf8fbbeU, 0xbd805cda3e44ba75U,
  0x3cdc0040be01101fU, 0x3db6f5d33d42caa6U, 0xbd215cb83d74f92aU, 0x3e0ccf4b3d9a756fU,
  0xbde858c83d8de212U, 0x3ea19506bdc2f807U, 0x3d79bc6f3e16ba2fU, 0xbe2f463b3e3d9b5aU,
  0xbd01a9e2bc859756U, 0x3db51edf3c8ba9c8U, 0x3d92222d3dad3ba3U, 0x3d47e245bd5cdc39U,
  0xbda32d733cec9fe1U, 0x3e7b4104bcc82fdeU, 0xbd137e953dec5804U, 0xbc82568b3debaf79U,
  0x3cc6c2843d57bf61U, 0x3c0d81773d2a52e1U, 0x3daffd8b3c2497ceU, 0x3d20a6143d9c11ebU,
  0xbda8230e3ddf1821U, 0x3e7a1feebdefae07U, 0x3d4653313a9b2bd6U, 0xbd272bf63e497ac1U,
  0x3d41c1e3bd8c95eaU, 0x3e08ad593db85b6aU, 0x3df70fe23d240c48U, 0x3e3497a93d19c475U,
  0xbc25f5193d0ee115U, 0x3e8aef23bddb4892U, 0x3d4380693c78dcc0U, 0x3cbec5b23dae4c9bU,
  0x3cc834493c8a5c1dU, 0x3dd14fc43e1f1440U, 0x3e04940a3cba2cc6U, 0x3dd63ae13d31d8e5U,
  0xbd9e467b3c38f1e4U, 0x3e4a604dbdbfd747U, 0x3de19a143d5d2b9cU, 0xbcbdb6ff3d423603U,
  0x3d2abec1bba04e0cU, 0x3e34750e3ca036b0U, 0xbcc21b943c8a4663U, 0x3d8d805cbcf21e93U,
  0x3d2c1941bd3fba86U, 0xbdf484acbd08d629U, 0xbd7e3e0b3d0697e7U, 0x3c75661dbc979eecU,
  0xbe1076d83c1b4bb0U, 0xbd0488273b1bf16dU, 0xbcf8b534bcd1aef6U, 0xbdc616353c0e11a3U,
  0x3e1646e2be2ae537U, 0xbe84c9933d48176bU, 0xbdb9751abe160501U, 0xbd491dbebb1f3635U,
  0xbd61d0cebd429c59U, 0xbdb21678be1352feU, 0xbe0974db3d3e1b1dU, 0xbe097723bcf7e33eU,
  0x3e0d1d6fbd2afdbaU, 0xbe84f80c3dc6aaecU, 0xbd49be15bd4b5980U, 0x3e1338bebe21ae6dU,
  0xbd15f958bcad911bU, 0xbe0fabbabdb091f4U, 0xbd71a0ff3c379215U, 0xbd4ed2a9bc6e8e9bU,
  0xbc236cfe3d0fdd08U, 0xbbfb2c633de2e509U, 0xbd53f8d4bb224ecaU, 0x3e1534a2bdb0e1c1U,
  0x3d9097a43d239bfdU, 0xbda2fb89bc83611bU, 0xba212c65bd387ffbU, 0xbd9f6e603d687c48U,
  0x3d81d11ebdc21929U, 0x3ce9455e3b36e8a6U, 0x3c24dd9a3c78d296U, 0x3b6586c6be33472fU,
  0x3dbfeb423d6da354U, 0x3c037215bcdf6d7aU, 0x3d0db8993d5aeb69U, 0xbe22fe71bba52b79U,
  0x3bd134723bd3a15eU, 0x3d3a82243d02d125U, 0xbc76196c3e07395cU, 0xbd514958bd496b74U,
  0x3cd791973c0c2cabU, 0xbd2434f5bd607485U, 0x3d46da483d999f93U, 0xbd576e5b3d98ad7eU,
  0x3d9fee5b3d03b6a9U, 0xbd9fd7cc3d3d2bc6U, 0x3d7175913d43bfb8U, 0xbbb98616be0defbbU,
  0x3da409573c2081ddU, 0xbe0880e33c5eaa74U, 0x3dd99e9bbbb54cdeU, 0xbdfe1255bd27dcbeU,
  0x3da4d6333d1ebab4U, 0xbd17146a3de92a74U, 0x3d903b033d5e86c9U, 0x3e338e04be299ac8U,
  0x3dbc23b43dc69dc0U, 0xbb5318d73ca1ff94U, 0x3c60d7bcbd52497dU, 0xbdb3f0ff3d296dd0U,
  0x3dcae73e3cd1df79U, 0x3bfb0bcb3de1361dU, 0x3d18b4e13cfd7290U, 0x3d91c1cebe2b8ff7U,
  0x3da894d23e13b2e0U, 0xbd508601bced8ac4U, 0x3dbd7dcfbd08b0ffU, 0xbd876e9a3c61adc1U,
  0x3d689e9dbd92c01dU, 0xbd72bca53d9d816bU, 0x3acb98ad3e03f249U, 0x3caa12f0bdfa824eU,
  0x3df803133d835eb2U, 0xbd0b39b5bd3fd835U, 0x3da0f080bc021a97U, 0xbd08fdbdbc6c004cU,
  0xbd4b207fbdb598caU, 0x3de671123d9fdcd8U, 0x3cc26f563d7168efU, 0x3e11413dbe2bebc0U,
  0x3d0a6ecf3d2a3123U, 0xbd5e21d1bdda8b26U, 0x3dded4f53d6b3663U, 0xbbc65fd43d0796d2U,
  0x3d4422783ce6d34aU, 0xbcb0ac6e3d32d692U, 0xbc4250063d7442d9U, 0xbb9e52a9bd4e9334U,
  0x3dea5e213d588e75U, 0x3d146607bda853d0U, 0x3cf3332a3cfd435bU, 0xbdcab9473cc228bcU,
  0xbd037b15bbca22d1U, 0x3d1eb93d3d77c724U, 0x3d92e1d83ddf0749U, 0x3e123c8abe26c1ceU,
  0x3dd12db73dce3c83U, 0x3d65494bbd27017dU, 0x3daba3513d42170eU, 0xbdcde23a3d805d10U,
  0xbd620cd3bc148176U, 0xbd94c9f53c2c7e98U, 0xbd3610c13dcb055cU, 0x3d377046bdd7083dU,
  0x3cc5655abd1391b3U, 0xbda9c0b73b80b630U, 0xbc2e96833db7742fU, 0xbdcf50f5bd99d6a7U,
  0x3d87a833bd573a1bU, 0x3d8b941e3dab4445U, 0x3d3da1ccbd04fa22U, 0x3dcf9a88bd7ee772U,
  0x3d88763c3d8915eaU, 0xbdadb79bbd796e44U, 0x3e0732a7bcc4c40cU, 0xbdb78ed2bcbd0c6cU,
  0x3d3064e1bd8276b8U, 0xbd2ae1fbbbd97077U, 0x3ded20273ddb21b7U, 0x3d5500f2bd90ec07U,
  0x3dac845c3c01cb53U, 0xbd519d90bddf3012U, 0x3e153c963d093a7cU, 0xbccbf0bcbd086d2aU,
  0xbbfd70083c699de1U, 0x3bfd64c23c847efaU, 0xba07a08a3d9ce6afU, 0xbc50f370bde9da87U,
  0x3e13fba63d3c1eb2U, 0x3cfa857cbdfb0326U, 0x3df0c1f03b8816a4U, 0xbdba7a203c7e8746U,
  0x3d44da9ebca3bbf3U, 0xbccdfb683dbd8608U, 0xbd73589b3d437f44U, 0x3e04ded6be0aebd6U,
  0x3dad231d3df1d400U, 0x3cef213bbc290b3dU, 0xbd391fe63dbe29d5U, 0xbcd8ede93d798c18U,
  0xbcf90cd4bd03bedcU, 0x3cd2d0183ccba53aU, 0xbd07a492bb628c0fU, 0xbd17d5e1bd97e914U,
  0x3c531adabd204ce5U, 0xbd3549debd0123c8U, 0x3cd959763cfc370dU, 0xbddb3e933d2d1626U,
  0x3d4194293d238172U, 0xbcfb37f8bc382718U, 0x3d714eef3d7eca90U, 0x3d619d0fbda92da5U,
  0xbcf1776a3d9522fdU, 0xbd0e8d85bd0cba37U, 0x3e0983c23bd2afd8U, 0xbe0a4621bc2bdcd6U,
  0x3d9a151d3d27ef8bU, 0xbc1c9ecc3d718417U, 0x3d4b1a9f3d347f38U, 0x3cd10158bd39d925U,
  0x3e15f3d33dcd0ae4U, 0xbcfd8dc4bdada560U, 0x3d8e7852bd16d4a0U, 0xbd55fc733caa0bcfU,
  0x3d6f546cbbdd7e6bU, 0xbbaa93fd3c3f960eU, 0x3d89e0613da93fbbU, 0x3e0cfba5be1d6c32U,
  0xbc20614e3ceaea2eU, 0x3b6374e4bd8a79f6U, 0x3c64d942bd03765dU, 0x3c288eb9bcf70d96U,
  0x3d43c1643cffeb14U, 0x3d98abc63d0e3978U, 0x3d9f8599bd671a50U, 0x3d57b496bd57e900U,
  0x3c2d32343d160040U, 0x3cc326d0bd8e06ecU, 0x3ddb302f3cfb7dd1U, 0xbd39a9063d997a4bU,
  0x3a1238af3d0e915fU, 0x3dafda993db1690cU, 0xbd0843c33d8072b8U, 0x3da15aa7bd6c4586U,
  0x3d3fb9dc3db03a1eU, 0xbd35eb24bcd6bfcfU, 0x3c9a58afbd641636U, 0xbda59185bc7be4f0U,
  0xbd441fc6bd4b926cU, 0xbb90d4ab3c97dbd3U, 0xbd2eafb7bd02941eU, 0x3d834076be21dda9U,
  0x3d72ab823d9a2515U, 0xbe04d670bdd51e26U, 0x3ccac094ba50c8d6U, 0xbd1b96623c4178d7U,
  0x3dae063abc8ad152U, 0xbc8864a03d339641U, 0xbd80d29e3c902e96U, 0x3d60c77abe35e783U,
  0x3cc9fa6e3d90436dU, 0xbd8643eebda15fe2U, 0x3dccc14a3d863cf9U, 0xbd8d2704bca72db6U,
  0x3de2154c3d098e2fU, 0xbd3788913dc0142aU, 0xbccf35ea3c461f26U, 0x3c9f45c3bde3b0d6U,
  0x3d0bea6bbccd035dU, 0xbd7861d1bd559083U, 0xbd466fa03cfdf15cU, 0xbe2bb3c33da8c55eU,
  0xbd0ef209ba5e370bU, 0xbdbe29cc3dc81e7cU, 0x3d01a9433c808510U, 0x3de03fcebdb6e152U,
  0x3dc8fb783db1fa6cU, 0xbd5b254abd917d88U, 0x3d9e600c3da13b56U, 0xbe2832a5bd610dc2U,
  0xbd1015523d1d22abU, 0x3d925f7cb9ef1b50U, 0x3d2af8b03d8cac48U, 0x3c8da2dbbdbb4bf4U,
  0x3d905b2f3def1ca1U, 0xbd4a0435bd5a26c1U, 0x3dbe91ffbc3396beU, 0xbdfecc52bc7e2905U,
  0x3d9d03dbbdab2b05U, 0xbd39eb383ddfe5abU, 0x3b68f8683d825611U, 0x3d9169e1be593375U,
  0x3d6bd1d93d0e71dcU, 0xbd8d13b5bdddf33eU, 0x3dd2e1c73c226cd0U, 0xbde9bfbabcf5a8a4U,
  0xbba7fc76bd1be421U, 0x3dc3184d3dcf777bU, 0x3dcc88cc3ba2e6f7U, 0x3c0ef1e4be3c0c9dU,
  0xbb8e6c933d01bffaU, 0xbdac6a18bd9161b6U, 0x3d1aebbe3d777154U, 0xbe0f235ebd5ef12aU,
  0xbc9b235f3ba203adU, 0x3d0381443dd6002eU, 0xbbfced943dc9218dU, 0x3dd580ecbe43e0c3U,
  0x3d8fc0a53e021250U, 0xbd73eeadbda7747cU, 0x3dfd2d8eb9c3220aU, 0xbe1c278dbd7e3d72U,
  0x3d8e36a8bdfcefccU, 0xbc935f7b3c781e9fU, 0x3d038453be8916a9U, 0xbda3f7073e2041a2U,
  0xbe17d1ba3d79ea79U, 0x3ad6ababbc0e6759U, 0xbe42b1473d10b36aU, 0xbd1028053dac344eU,
  0x3d9274da3ca35477U, 0xbdd2a9bd3d850b90U, 0xbc8bf903be0fd85bU, 0x3daccfd23e03f233U,
  0xbdce0f323be82844U, 0x3ddfcf2a3d9acebbU, 0xbe0270803b5052d6U, 0x3ce8b23e3d48eab6U,
  0x3db6a6cbbd80cbe6U, 0xbd0e84623bc3656bU, 0x3d82669dbe83277fU, 0x3ce8268b3e2d588fU,
  0xbd9d59723d253192U, 0xbaa3e92bba378819U, 0xbce444973d9616d6U, 0xbda3b1aa3db0110cU,
  0x3d871b80bd88e55fU, 0xbdb0b61fbcf79a34U, 0x3d685c08be2287f2U, 0x3d861bd13d682f06U,
  0xbdbcba753df8d21eU, 0x3cd61e023d080405U, 0xbe15082a3da38cf2U, 0xbdb2a1b7bd0fe7f4U,
  0x3cd4535cbdb2c7cfU, 0xbde08b63bc4f0049U, 0x3c5cd371be47f4baU, 0xbc5739e13d00199eU,
  0xbd0d9b093d309a71U, 0x3ca17224bd81f155U, 0xbd3e33813df817cbU, 0xbd31a2c73d93ee15U,
  0x3e021ad9bd0df171U, 0xbe2747e93d8e6ab2U, 0x3c21f074be36ea33U, 0xbc5a51693c406773U,
  0xbc2837a83cee52fbU, 0x3de1a40a3ca20746U, 0xbe8b0f3d3e16c922U, 0xbdbe04ef3da466a7U,
  0x3c9008673a4dbceeU, 0xbe4368a1bd38f2caU, 0x3d1f181dbe2982ffU, 0xbc7fd0353d7e2389U,
  0xbd59ef353dc5eb71U, 0x3db9128bbd50b3f4U, 0xbe76ce573e0f285fU, 0x3cad2edcbcaa8f7bU,
  0x3dc6a2f2bd06c0c9U, 0xbe55d4c7bd238a97U, 0x3d8970e2bdfe55daU, 0xbd3a44343dbf3515U,
  0xbd12f4713df85d8bU, 0x3d70508abda043c0U, 0xbe4eaa843d4d78f5U, 0xbc929c0f3cc6f415U,
  0x3d45d681bdc0e208U, 0xbe09346e3dae465bU, 0x3cb72657be3105bbU, 0x3c46a1ff3e2c8a63U,
  0xbe0634933e28401fU, 0x3d4b6f5e3d33d412U, 0xbdf8831d3d090d67U, 0xbd77714c3d49876cU,
  0x3cabfdfabcd8b116U, 0xbdfd81fb3daf21c4U, 0x3db081cfbe40e793U, 0xbdcf76353dde77f6U,
  0xbda8e6df3d11b171U, 0x3d827778bc10ec60U, 0xbd8373553d88f516U, 0x3cf379e23d81fb03U,
  0xbb55932dbd996dc3U, 0xbe11db913d80cd6fU, 0x3d810a40be6d4a8fU, 0xbce474463d69939eU,
  0xbdc121023ce1e535U, 0xbc8deb543c55b92aU, 0xbe2b5e333e22a6cbU, 0xbdc188043dfb03deU,
  0x3ca3ba29bd3362ceU, 0xbe0cb6e3bcce4d9eU, 0x3d1570bbbe1f7f5bU, 0x3c8b31aa3d3debbcU,
  0xbe27fefe3d3af0ebU, 0x3d65aaedbd41e767U, 0xbdc1258b3bba0579U, 0xbdd69deebd630cffU,
  0x3d1bb82dbdc40350U, 0xbe1937df3da118a5U, 0x3dd08cf6bdeed26cU, 0xbcc28a283dfb23dcU,
  0xbe0ccf733d0c184bU, 0x3db579e93c8f0e50U, 0xbdea4b593d79e9cfU, 0xbc6634303dc81278U,
  0xbc02454dbdd6acccU, 0xbe16b12dbbfc6d22U, 0x3bb2ae41be3c776eU, 0x3c8b9e663e02744fU,
  0xbd6af7fbbcc8c312U, 0xbc34c232bd878e00U, 0xbd9b82733d8507b2U, 0xbd04c63b3caac1e9U,
  0x3b730bfebd82a8d3U, 0xbdeb5b0fbc4ae482U, 0x3daf7440bdd4f97aU, 0xbde1d69d3db23233U,
  0xbd9877353dad5365U, 0xbbafdb2b3cf41885U, 0xbe38a2443e197e73U, 0x3cdee8c63c879732U,
  0x3cfd6f5cbd0dd9fbU, 0xbdda196e3d82d833U, 0x3d3a294cbe51ac67U, 0xbcbf4d8b3da708feU,
  0xbe0d98393ba320bcU, 0x3d88a6cebd442520U, 0xbdd2a4ca3ddf9e7eU, 0xbd50161c3d90a933U,
  0xbb4a7629bde17b51U, 0xbd9b6e6d3e03f0f4U, 0x3d631316be754ca0U, 0x3d148e863e095219U,
  0xbd6903a1bd08fb8bU, 0x3d0a1449bcafe79bU, 0xbe036f073d757c6aU, 0xbd0d48fb3d3b21b5U,
  0x3dc9de49bd9b0826U, 0xbdc43dc43dadd33eU, 0x3d60da9bbe3e02f8U, 0xbd32541a3d61dd6aU,
  0xbe05a86e3cfb5efcU, 0xb8814d0abd865d5aU, 0xbdc3744d3e16a4a7U, 0xbd978e51bc7fc4d6U,
  0x3dd92762bcbe68b8U, 0xbdabc86dbc114c82U, 0x3d1892e6be741866U, 0x3b1b6b4b3e2c072bU,
  0xbe04d66d3b9805b1U, 0x3d074eeabd2d610dU, 0xbe2075ee3ca08c72U, 0xbd5504c23d34dce0U,
  0x3dbf3b453b52a0acU, 0xbdbe4b413da7b488U, 0x3d5401fdbe429d31U, 0xbe0c0b5a3e35a3d3U,
  0xbdb94bba3c38a1c9U, 0x3ce02faa3c47f496U, 0xbe55ef7e3e06e558U, 0xbca0f5f4bcc9b531U,
  0x3dd51f2fbd3cad11U, 0xbd838e0e3d3de6b3U, 0x3da62334be8f378aU, 0xbc1377a83dc44b94U,
  0xbdff16e0ba0f175eU, 0x3b693aa73ced7603U, 0xbdcaac163b72e333U, 0xbdbe8bebbc075086U,
  0x3daa6b44bdcc2074U, 0xbe2b5cf23daf80b3U, 0xbd31728cbdc99c75U, 0x3d32032e3d8b1d10U,
  0xbde0298a3da08b60U, 0x3cf30946bdad1df9U, 0xbde7ee40bc12e0a2U, 0xbdce89143d76045aU,
  0x3c023b58bdd8e173U, 0xbe67e394bce8d603U, 0x3d583c32bde92209U, 0xbd95b5673dee2172U,
  0xbd94e7f4bd128bb5U, 0x3df2e508bdbdb000U, 0xbe073c893e3d3722U, 0xbcce71ee3d93e387U,
  0x3d9f3d32bdb61dbfU, 0xbe85170e3c3e7b26U, 0xbcc0f31abcd4dc53U, 0xbd0b0f663dfdbb85U,
  0xbe0c66393c4929cdU, 0x3d911ae0bd80c683U, 0xbd8a93a23d83a18aU, 0xbdb24203bbd3919eU,
  0xbd2956b0bdc3b2abU, 0xbe4bcd5c3db0028dU, 0x3d5fdd86bdde9149U, 0xbd79f0aa3d211db4U,
  0xbd7631263d510ffbU, 0x3d585654bd9115d6U, 0xbe20d68b3d206ed1U, 0xbb58106cbc07c4b8U,
  0x3d507e3cbd9bb624U, 0xbe782add3b85cc2cU, 0x3e02ab4abe79f606U, 0xbc9c81a93d973f31U,
  0xbc9cefe4bc93bba7U, 0x3d93b298bd806c97U, 0xbd319d253e038dc3U, 0xbd4091103d60ab7aU,
  0x3d98dc143ce5f29fU, 0xbe57f9603dc44ecaU, 0x3df5cd94be393b7bU, 0xbd08b3ff3dadfd6eU,
  0xbe1c338b3e175d0fU, 0x3c8a43c23d794df4U, 0xbd854599bc60d68dU, 0xbd2342313da75ce5U,
  0x3cf2e93bbd9091a7U, 0xbde34fd83d2e14f3U, 0x3d9c1de1be64cb85U, 0xbd3db5213e3fc91fU,
  0xbdc20770bc8301b0U, 0x3da31fefbd049860U, 0xbe396c49baf51a9eU, 0xbd873be13db4874bU,
  0x3d41c4aebdbaf193U, 0xbd48859dbd57c2f0U, 0xbd058e7dbd3426d1U, 0x3d0daa033deedb36U,
  0x3c177b9e3d55052cU, 0x3da990adbd75f131U, 0xbdf50d243c58e49dU, 0xbdc041a33dde4079U,
  0x3e0ed26b3c842c98U, 0xbe646873bd34f150U, 0xbd20f410bd76a06cU, 0xbd5058073cce756bU,
  0xbe30b734bd012545U, 0x3dce249bbd19353eU, 0xbe0435943dffd9e5U, 0xbd6888373d9710d9U,
  0x3d68a562bd9e7490U, 0xbdb50255bc0551a6U, 0x3db5d335be3a1b58U, 0x3d1185063e0eb07aU,
  0xbdbac52d3d9f0ca7U, 0x3dad295cbc72627dU, 0xbe2e3ccdbcfca4a2U, 0xbd23c0833c947f4aU,
  0x3d61fc58bdee3e1dU, 0xbe6de2273d52a6ceU, 0xbcf4b32bbe766210U, 0xbd58d71e3da55708U,
  0xbd2afc353c6b6ba5U, 0x3c1661febdac3ba7U, 0xbe326c9c3db1a756U, 0xbba75cc73cdfbc69U,
  0x3d28ba94be0f79c2U, 0xbe1d56503d15bd6fU, 0x3d1055c5be94ef0cU, 0xbbb056823dd73ad1U,
  0xbe37ff103d58b0ceU, 0x3d8473d4bdc7fb2cU, 0xbe66c7523d8030ffU, 0xbcca6d38bd7cba3eU,
  0x3cd4cd0cbd88cb88U, 0xbd91b7fe3d80ae8bU, 0x3d9ba0ddbdec50ecU, 0xbdd4d94c3d8545e7U,
  0xbdff766b3da08747U, 0x3bf2aefbbdb5ca75U, 0xbe03dc223e070009U, 0xbcef60e23c62a304U,
  0x3e32c9ed3c89f033U, 0xbe1c08473d8dc64fU, 0x3a5c8233be2cdc51U, 0x3d0a443d3da7deb1U,
  0xbdecbe673dd25567U, 0xbd07a895bc820648U, 0xbdb206853d4ff39aU, 0xbd1e6256bc6e9c96U,
  0x3de744debd47c0aeU, 0xbe479dd73cda054cU, 0xbd447a18be525f01U, 0xbd0f9db83e0d5c6aU,
  0xbe2e5f753dae20bbU, 0xbc388b09be094824U, 0xbdd459b23db239d2U, 0xbdac6e22bd590fa8U,
  0x3d206306bdca44c9U, 0xbd282b6e3d0cb043U, 0x3c92d2bdbe6357feU, 0x3d570e943cd8a561U,
  0xbd9296213dffad6bU, 0xbd1f8d6bbd83a3c0U, 0xbe03b331bb1dcba8U, 0xbdc82376bd19ce37U,
  0x3e0ccfa7ba5205a9U, 0xbe50da4d3d6b455bU, 0x3c192a9dbe6df3c7U, 0x3db26ff63d3148d1U,
  0xbdf5c2f73d395b40U, 0x39187a24bd7faf79U, 0xbe1189ae3d3cd065U, 0xbd3b93cabc3dd7fcU,
  0x3d77db47bd67d6a9U, 0xbda3276abc774a78U, 0x3d7e1cefbe172e2dU, 0xbd707f8a3d7660f6U,
  0xbdf6ed7cbc4fb98cU, 0x3d661980bc41fdeaU, 0xbdb7f2b33dc827fcU, 0xbc87cf613b20dea1U,
  0x3df65d8cbd44e4c1U, 0xbe38fef23dbf8515U, 0xbd41b44ebe691cc8U, 0xbdeab99e3daa880bU,
  0xbe01ea993d2b2b14U, 0x3c4e90d1bd998326U, 0xbd6061573dcc551eU, 0xbd23aa4cbc15ed96U,
  0x3d8d7d0dbdcf34ddU, 0xbdd32ce43de3986cU, 0x3d685b8cbe7479d3U, 0xbd206d283dd40ea7U,
  0xbe29185a3d808124U, 0xbc1a4368bd3a3576U, 0xbdfa53a33da940c3U, 0x3bcad694bc1dc899U,
  0x3d86f2b13cb2c82fU, 0xbdf604b13dcec9e6U, 0xbccaeddcbe238540U, 0xbd1bf2453ca878f1U,
  0xbb3c6dc63daa44f4U, 0xbc9c9c6fbd2c1a29U, 0xbe08ac913c3c1701U, 0xbdf5f2a93d8376a0U,
  0x3d8d88e6bd0ac5d5U, 0xbe139df53d97b67dU, 0x3dd97f69be2f4fadU, 0xbdf5d6c43d8830dcU,
  0xbe1422183d306a0fU, 0x3dc03a193ce2920cU, 0xbe35794d3ba7f6b7U, 0x3c451acf3c1733f6U,
  0x3ddf6af3bde91bf3U, 0xbe5e6776bd12823fU, 0x3c86620ebe03d792U, 0xbe2bda373de5f759U,
  0xbe080e4b3d9425f2U, 0x3d1cb83c3b4c15d4U, 0xbe36fa443cb70961U, 0x3cc00dcfbc9248f1U,
  0x3dceafbdbd879bbfU, 0xbd57dfbcbc22e5b3U, 0xbc5dc381be8282c9U, 0x3ba5ae7a3e11f4d4U,
  0xbdef1d753d405642U, 0x3c0f6f743cdebd09U, 0xbe1e12f23cab78f9U, 0xbdfb0bd03d8396f1U,
  0x3da707e8bd76c2f8U, 0xbe774a6f3c3d3d7dU, 0x3d58030dbe598239U, 0xbcedc5483dede651U,
  0xbd6ab4633ce70582U, 0xbd79474fbc3f1558U, 0xbe3336843a15e955U, 0xbdc0e522bd528aefU,
  0x3d4c3f3a3c81b1cbU, 0xbe0362933dd3cbbcU, 0x3db5edfebe4dd7f0U, 0xbe2cd5363de4a1a6U,
  0xbddbc470bd1045c8U, 0x3d857126bd531260U, 0xbe2ab2e43d4892dbU, 0xbdea60b7bb84bdaaU,
  0x3d0ab5b8bdcbdb37U, 0xbd9530803b26e043U, 0xbd92bec1be8be52bU, 0xbdd4ff2b3dec9f71U,
  0xbe3931bbba795da8U, 0xbd450c93bcd264aeU, 0xbe6546fe3d80aea2U, 0xbe16fe313d6c5ed6U,
  0x3de1f423bd5aef93U, 0xbe41a75bbcf6d19cU, 0x3d8a705ebe712df5U, 0xbd54203f3e018919U,
  0xbda399d73d2990afU, 0x3d3a84b1bd184cadU, 0xbde5e7c23d9c1260U, 0xbe284fe23d58485dU,
  0x3d6165df3b79ea5aU, 0xbdb254023d9c15faU, 0xbb50bd26be2b7639U, 0xbdc5bf5a3db988c7U,
  0xbe478e543d8fc9faU, 0x3cdc8e76bd263305U, 0xbcdbb2b43dae0362U, 0xbdd7b67cbd18650fU,
  0x3ddcd6553be4201dU, 0xbe0642eebcaaaba5U, 0xbb6a120dbe933976U, 0x3b89f94e3d999013U,
  0xbe0cbe8a3defb5f4U, 0x3d7975e3bc33c042U, 0xbe0869943dc7671eU, 0xbc85ab053d2e6215U,
  0x3d436745bd95f05bU, 0xbde4e74bbcf62aa4U, 0x3d1b568dbe191ccaU, 0x3ca8d8493debc05eU,
  0xbdd8b943bcfc75eeU, 0x3c94e8e63db1089bU, 0xbe21a52b38f177f7U, 0x3bfda8f5bd3a0f53U,
  0x3db74003bda913f2U, 0xbe7735a53d897e18U, 0xbbe14904be41c5a7U, 0xbb519eb43dcdad42U,
  0xbe5985db3de02c83U, 0xbc7daaafbcacf8dfU, 0xbdf618633dc26fd2U, 0xbe0c19a63d20e370U,
  0x3d364ae9bcc57735U, 0xbe0c3756bcd57635U, 0x3ccfde22be4835bdU, 0x3c8ba3573dd8922aU,
  0xbcce71bf3dc6a7d5U, 0x3d5a5bb63c53f692U, 0xbdbebce83ca1ccdcU, 0xbc9f29b5bd540358U,
  0xbd2c6de23b0684cfU, 0xbe2cae923c81b81aU, 0x3dbbe47abe1e4c9aU, 0xbd4115353d0dd7eeU,
  0xbde1abe73b01b606U, 0x3da81656bd4a25f3U, 0xbe5a0a683b06cdb4U, 0x3ca7afa4bcc40df4U,
  0x3d9b6e84bdc8f218U, 0xbdf7fff83da26682U, 0xbcb4e352be48819dU, 0xbe10b5bc3ddc809bU,
  0xbdf1df68bb2e13b0U, 0xbb9c8ecb3d29da20U, 0xbe101c513de44fdaU, 0xbc5c060cbd0f3faeU,
  0x3d2f1da83c88f845U, 0xbd8f58ac3d85fff8U, 0x3d7d0ab5be019980U, 0x3d12a1703d3a9a64U,
  0xbcb91f3d3e1d8dceU, 0xbd07231ebd7ef397U, 0xbd510323b9fa9bc6U, 0xbe05f5f8bd31a317U,
  0x3dc1f02fbd012c6aU, 0xbde0b5593d4eebd3U, 0x3d00a0f1be12b403U, 0x3ca205433d7b33b4U,
  0xbda8f94b3ae6e5c5U, 0x3dd254ae3caf5740U, 0xbe3a995b3d974737U, 0xbd0f21ac3d124c58U,
  0x3e02e361bcfbfd6cU, 0xbdcd67dc3d8f6ecbU, 0xbc9313ccbe26b88cU, 0xbb454b013d5fa637U,
  0xbe40bbacbc931f73U, 0xbd33980fbd2f37f6U, 0xbe5f341c3d9b1173U, 0xbc5bbfff3c33f1faU,
  0x3b940630bd598f43U, 0xbe920f253dc11687U, 0xbdac3357be6a01dbU, 0xbd163c1aba92369dU,
  0xbe14af523cd88941U, 0x3d7f5b97bc94bf5eU, 0xbe0659653d9786a5U, 0xbdf9aab9bccd0928U,
  0x3d56d04abded04c3U, 0xbdf6e3b5bc91a9efU, 0xbd0fd8debe258018U, 0x3d5075813e0269fcU,
  0xbd3e6ace3d9e50ceU, 0xbcc44083bcd9bc97U, 0xbcffb42b3db8d218U, 0x3cd59306bd8e30d1U,
  0x3d471143bd97abe5U, 0xbda5a51d3c054ee4U, 0xbd8cd834bc2c28e8U, 0xbc94a0a73d3051cfU,
  0x3d7a25f4bcb9e3e8U, 0xbd2c8d0ebcd30465U, 0x3cf133473d9b4ffcU, 0xbd6fdfd43d487ad1U,
  0xbd9746da3d061b63U, 0x3d4be757bc2fc08cU, 0x3d87c7563c4e29baU, 0xbd7e36f2bd959c6bU,
  0x3b8115c13d630db0U, 0xbd7e4f01bd9905e6U, 0x3c39ce98bc8df992U, 0xbd82460abd51b9a4U,
  0xbc012addbcb5f63eU, 0xbd2d0143bce04d9cU, 0xbda6d7f33d28aad7U, 0xbd9b6622bc9483baU,
  0xbcfbfcdebd927a10U, 0x3bfb91713c4d181cU, 0xbd112934bd9d630dU, 0x3b90c26fbd5b52b9U,
  0xbd885395bd912368U, 0xbd6fa7063afd86f1U, 0x3d2a5affbda59820U, 0xbd7ec1f0bda4f8baU,
  0xbcb8b5dc3c32e339U, 0x3d61f2b0bd886e37U, 0xbcf73c6e3d55b6bbU, 0xbd62d7bcbda0ad57U,
  0xbd32c6a43c08a8baU, 0xbce2e28bbc5a1f9cU, 0xbca987343bee232bU, 0xbd48cf71bd2b4150U,
  0xbcc8879e3d44f479U, 0x3d1923d9bd854ff4U, 0xbd98b215bd6b840bU, 0x3d89bb0cbd846117U,
  0x3daa68a3bd7dedecU, 0x3d4f1804bd298f48U, 0xbd3d23ff3d04faccU, 0x3cfe07fdbcc40d3cU,
  0xbc1309cfbd4ba991U, 0xbce0431f3d629a2bU, 0x3d83ec613cc24998U, 0xbd362d623b978214U,
  0x3d0253f3bd821ac2U, 0xbcec278c3d9857ebU, 0x3d7b0c49bd463340U, 0x3d4a60763d2e0bfaU,
  0x3cc5adafbd4d049bU, 0xbd86d8373c8e1ac5U, 0xbd3a55463d06e490U, 0x3d4e789b3c8edfa5U,
  0x3d2097973ca574b6U, 0x3d5dfb0cbd51eefdU, 0xbd98618dbdae1e57U, 0xbd30c367bcfc732bU,
  0x3d8728893cbf0a6cU, 0x3d947da83d305d3aU, 0x3d64687b3ce11f3bU, 0x3cd2c397bd1cabedU,
  0xbc0d3f1e3c872a75U, 0xbab6c7f2bd75a3acU, 0xbda082cf3d1e70dcU, 0x3d4e94d73cffcffdU,
  0x3cb41d10bcec005eU, 0x3d07a710bb81de7bU, 0x3d6118433d300792U, 0x3d311db6bce89d80U,
  0x3c2aa156bd9e3394U, 0xbd375263bc8947d6U, 0x3bc1dacc3d720d3cU, 0x3d712e533d869d9dU,
  0xbd168fbd3c2a6a4cU, 0x3d67f5073d5e01d6U, 0x3d22836a3d4f1645U, 0x3d7f18ecbca1347cU,
  0xbccee62dbd325ab2U, 0x3c7b7413bd38785bU, 0xbd3ffe5d3d528e7dU, 0xbd8a95a6bcceeb94U,
  0xbc84054f3b964a6bU, 0xbd8092793d0cc7bdU, 0x3d29ccd2bd84a96fU, 0xbd91c56cbcacb42aU,
  0xbd133d2a3d56e5dfU, 0x3d6268d63d13b9eaU, 0x3d5e7c0c3ccf17c5U, 0xbd5fb93b3c49c3c4U,
  0xbd4431683d6207e1U, 0x3c778cc33d6c69aeU, 0x3c7cec9b3d619161U, 0xba6b1bc33d9178fbU,
  0x3d566794bd63ec74U, 0x3d19112cbd162e53U, 0xbc3f461c3d3537ebU, 0xbd5a1e743ce8fd1eU,
  0x3d0f4114bda7f5b4U, 0xbc55c7123d06bfdcU, 0xbaf5b05e3bad99f8U, 0xbd87688dbd75952fU,
  0x3cc0313a3a978857U, 0xbc55df0abd94259dU, 0xbd2096dfbd7b392cU, 0x3d626718bd9d9f3eU,
  0x3d3288503cab8c6bU, 0x3d164adf3c41e673U, 0xbd15f39f3d51d227U, 0x3c0402303d8a2fe4U,
  0xbcd57fcf3d39a375U, 0x3d9e11b03d8086a4U, 0x3cb41268bd179fcbU, 0xbd9d258bba3c455fU,
  0xbd1588623b9117ecU, 0xbd8bd393bd750dcaU, 0xbb44c6f6bd8b8baaU, 0x3d20200a3ca7b205U,
  0xbc4fe876bd72ba22U, 0xbd855277bd907f69U, 0x3d12a8223d139080U, 0x3ba2a35fbda7cb18U,
  0xbd9887deb8e02727U, 0xbc4e8c03bd927ff6U, 0x3d6a3866bcd37e29U, 0x3c91c7933b1fc241U,
  0xbd8a5e0ab9e9ebc4U, 0xbd9703213cc9a3f2U, 0xbcdf0141bd33d999U, 0xbd4c76e4bd1cc5b6U,
  0x3a81d6babd825aa2U, 0x3c81151fbd907608U, 0x3d912a40bcd864e5U, 0xbd9ea1e1bd3f3e29U,
  0xbcfb6fde3c85720bU, 0x3d4691d4bd468852U, 0xbd7e6f083d489758U, 0xbca5c4d5bd645b9aU,
  0x3d827e2dbc2216ffU, 0x3d70817abd9729e4U, 0x3c54e84b3b0fadebU, 0xbcd89941bd7d3411U,
  0x3d0013b3bd930862U, 0xbd85361cbc3f6c02U, 0xbd8552e5bd477a5fU, 0xbd7bd35abd5676e6U,
  0x3d30f3cfbd62288aU, 0x3c00a49e3bab2a65U, 0xbd0e637e3c82a9eeU, 0xbd8b7729bd6e5543U,
  0x3c565c93bd0ca01bU, 0x3d5f13c43d83d7edU, 0x3aa2a0473d074608U, 0x3cb82620bda942dcU,
  0xbd6f3384bda78e7cU, 0xbc0100e0bce54019U, 0xbd446c48bcfdc05dU, 0xbd430b7dbd74fd67U,
  0xbd5d528e3ca1ac09U, 0xbd6b02fdbd9ef2a4U, 0xbd440d343b93b695U, 0xbd845f143d60b90eU,
  0xbd323264bd97e2f2U, 0xbd65d6e43bdf1662U, 0x3d63817bbd891d1eU, 0xbd86528ebd3dab60U,
  0x3cde2fd7bcd828eeU, 0xbd92f066bd854ef1U, 0xbd2b831d3d54f4bcU, 0xbd15bb4d3d091f1fU,
  0xbcdda7c8bd063e14U, 0x3ca7424fbd940fc4U, 0xbc9d9d35bcaf53b5U, 0xbb651bacbb843e49U,
  0x3d47aa79bce48f01U, 0x3d7e30563d72d98eU, 0x3b4e925dbc0939bfU, 0x3ca272e9bcda9f5eU,
  0xbd90b1a0bdaa5a11U, 0xbc3bba62bced340eU, 0x3c420c3a3d870171U, 0xb923ffebbca90901U,
  0xbcda30513d27c5a2U, 0x3d4543173d914354U, 0x3d1b8ef5bc3968afU, 0x3b1a664ebd271f9dU,
  0xbc3498f7bc88ad43U, 0xbd6f9523bd8a781cU, 0x3d28136abd003665U, 0xbd59f0d73d3fbe22U,
  0x3d477cc63d3599b7U, 0x3ced864f3cc60046U, 0xbd796004bce85975U, 0xbcca8f0fbd0da793U,
  0x3d84b24cbcb67e0eU, 0xbd9f9a843cb583a5U, 0xbbb737683d9356a3U, 0xbc4ecd69bd976cb5U,
  0xbb533f703b018594U, 0xbcb9a31d3b11bcd8U, 0xbd14822bbc6a2964U, 0x3d3cb3e83bcc86b5U,
  0x3d4c57223ca2334cU, 0xbb119a1abd025b38U, 0xbd1b79d3bcd7b73aU, 0x3d6031593d741f38U,
  0xbd33bdf0bd39e0ffU, 0x3d47e854bd05b505U, 0x3c2e33e1bd780051U, 0xbb8601b0bcbe02a2U,
  0xbce4e2afbd9b23beU, 0x3cab7cf2bd2f562eU, 0x39af9eaabd899f04U, 0xbd4bcc4c3d0b9a87U,
  0x3d7e3524bd52443fU, 0x3ca5b0863d615e16U, 0x3b217fc83ce44792U, 0xbd87d56a3d19a103U,
  0xbd56fdb1bc55fdb7U, 0x3d24d7b03d8f4f2cU, 0xbc9ec54bbd9d005dU, 0xbd0e055d3d8d987eU,
  0x3d14ab3a3d138cbfU, 0xbd02666abd92ba84U, 0xbcbd92e03bc64662U, 0xbcca07ce3d94802bU,
  0x3d459c5f3cf4d218U, 0x3cf10e05bd26ed6cU, 0x3d4d8fb73d117cf1U, 0xbc57ed70bd119cadU,
  0xbd7f3ebdbd9abbd0U, 0x3d874a963d394b48U, 0xbd5394183d70e385U, 0xbda2296c3c8f0385U,
  0x3d7fa2e53c249196U, 0x3cce2e4e3ce4f9a9U, 0x3c96c4b73d4a23c3U, 0x3d709077b9dabd84U,
  0x3d15220e3ca60ffeU, 0xbacf3e1bbcab615eU, 0xbce6cc90bc051cf9U, 0x3b3d5d6dbd857593U,
  0x3ce39a49bd74d8f2U, 0x3d45d343bcbfec66U, 0xbd51f85c3cc5da18U, 0xbd27b499bd2f1f6aU,
  0x3a264b313d43374fU, 0xbd17f92f3d866f22U, 0xbd96367bbd76066cU, 0x3caf8415bcc8661aU,
  0xbd4616173c7a407aU, 0xbd98d10abda4f81aU, 0xbd2ddf743d7e0055U, 0x3d687d27bd5289d0U,
  0xbd7ba742bd2da08fU, 0xbd7ccaa93c5a1852U, 0x3cf2f8a43d8a0711U, 0x3b81b691bd822fa6U,
  0xbca6d618bcc142c4U, 0xbcbbdc99bd9b6405U, 0x3d834773bc96e616U, 0x3b387ef7bcb0dd7aU,
  0x3d15875cbd8315d5U, 0xbc64fcb7bd64b8f5U, 0x3cddce3fbc927432U, 0x3d816b64bd400b65U,
  0xbcbb174e3d5b799bU, 0x3d34d750bda39152U, 0x3d71de4ebd60d46aU, 0xbda01bbbbbb220f4U,
  0xbd707a6cbcafe1eeU, 0x3d74faa9bd1bf1ceU, 0xbb8a71c2bb6856abU, 0xbd7944523d158252U,
  0x3d7625d5bda061adU, 0xbd30aefebc96ed93U, 0x3bce59573d2951abU, 0xbd246a813c94817aU,
  0x3d695b1cbd0939d4U, 0xbcf685a03c843c07U, 0xbd80a0a03d554f30U, 0x3c2644cabd0d4f81U,
  0x3c8623e9bd058c69U, 0xbc753e54bce60b2dU, 0x3c9dc049bd0b4c82U, 0x3c2a8c76bbd681deU,
  0xbcde760b3c46fe2bU, 0x3cb5f0123d5cc8cbU, 0x3d20b288bb8ddc25U, 0x3d8c6d07bd03cf01U,
  0xbbc9bc40bd63129aU, 0x3c6a0bd4bd3cc942U, 0x3d6532b53d51599aU, 0xbc8b286cbd41b9f9U,
  0x3da05037bd71c973U, 0x3d3d2836bca47434U, 0xbd886a71bbf7fe67U, 0xbd1705e33d259b17U,
  0xbd52599bbd1bd34aU, 0xbd0d26723d66434aU, 0xbd3d1ac73d86dfb9U, 0xbcb661b43d316382U,
  0xbd5db52ebd93bcf5U, 0x3b8700ba3c821b33U, 0xbd4f00ddbcac0763U, 0x3cfc7dc2bc6e3b24U,
  0xbccc339a3d7aa7a0U, 0xbba87ff7bd16b14fU, 0xbc748c7dbd817b71U, 0x3c82624e3d338d0bU,
  0x3d61904d3bc97befU, 0xbd0c7e583d36a0a4U, 0x3d75d009bd6b60d9U, 0x3d4451023d40f5bcU,
  0xbc575ba43c1b25fdU, 0x3d6fad67bcb8c560U, 0x3d3bf93c3d4c3161U, 0xbc687e7e3d6bb881U,
  0x3bf880e2bd10127fU, 0xbd9e297ebd55b3deU, 0x3d4aeb873cc3b9f1U, 0xbbf432ea3d0c58ecU,
  0xbcc4b0cdbd3b7fa0U, 0x3d93d3643c319e68U, 0xbd3684d93d062fb3U, 0x3c9c4631bd922c32U,
  0x3d63079abb984d38U, 0x3b8e7728bd90753cU, 0x3d872b433ca54609U, 0xbcd404a5bd05d6cfU,
  0x3ca81c0bba978631U, 0x3d1aad1e3cb8fd7eU, 0x3d5f53433d7e086dU, 0xbd903ba43bc9ada4U,
  0x3bab10b6bcc1b490U, 0xbd942909bd9a52c0U, 0xbcf7b3283c4e1784U, 0x3cf55a69bb9c50d2U,
  0x3d2af6733ce6d1b6U, 0xbd9a8ac23d71c325U, 0xbd3a4ee3bc2ee640U, 0xbda81d3bbc8b2e44U,
  0xbd98f8ddbd3aca23U, 0xbc5144373c3a92b9U, 0xbc0ecf3c3cf5aa7eU, 0xbcd8e101ba09386aU,
  0xbcb8192dbd0a8f71U, 0xbd9bd8e1bacba0acU, 0x3be8129dbd2e7349U, 0xbd4a81d3bcbde7a1U,
  0x3a28f1e6bda78beeU, 0x3d792278bc90f451U, 0xbccca9af3ce5dc9aU, 0x3c242a6abd6658cdU,
  0x3d6b0b4fbd2d7b8dU, 0xbb9b46a0bd7ed4caU, 0xbcd880cdbd5c99cfU, 0x3d6c4fed3d446cdcU,
  0xbd89bde6bd7f3ebfU, 0x3c262b203d7e363aU, 0xbda0ebdbbbb8511fU, 0x3d8cfc56bd696441U,
  0x3d03dabc3d1a847eU, 0x3d34db623d80c1dbU, 0xbd4be7013cf75cccU, 0x3d6a2fca3d03c093U,
  0x3c7319d8bca017bbU, 0xbc988313bd662b44U, 0x3d847b9a3d648dcdU, 0x3d9a2d1d3d7650d2U,
  0x3d158953bc5a3793U, 0x3c78b726bab82d2dU, 0x3d883d0b3bc1f076U, 0xbc63b1f23c7648e4U,
  0x3c0fdaed3c120e5cU, 0x3c213e52bd6625ecU, 0x3d10deb23d445412U, 0xbcf44eee3d2d759fU,
  0x3ca7afc6bc97ff1dU, 0xbd93fb783c75546dU, 0x3d042d393d47467eU, 0xbb998c443d3fb324U,
  0x3d8cf7133d8c71faU, 0xbd63440d3b6df00cU, 0xbc3dcedabc9fd604U, 0xbd6ef129bcecaa3eU,
  0x3b853fdb3d9089f2U, 0x3d2522cd3c1c45f0U, 0xbcd681433d7f4783U, 0x3c0e802fbc793d4eU,
  0xbd5462bebda2e82eU, 0xbd92d3623b9d17bdU, 0xbbdbff58bd2198f3U, 0xbd45f30dbd631d5dU,
  0xbc8fe7aabd51ecf7U, 0x3d477f843cb9fd7cU, 0x3d276a2cbd111650U, 0xbd2b9538bcef156aU,
  0x3d67253b3d898d7fU, 0x3d1056fb3c8d10e2U, 0x3d31dfa2bd17ddf2U, 0xbd98ef1fbc888331U,
  0x3d9743dabd5f9c91U, 0xbcf1ea393c3b85cfU, 0xbd0b16f3bcd5e37fU, 0xbd2040763c4106eeU,
  0xbd4e2f8b3c253d59U, 0xbc1f1ae0bd5cb0d7U, 0xbd3593693d1be6fcU, 0xbd5828ff3c943cb2U,
  0xbcec7a2f3c59a66aU, 0x3cca76443b8f7d0eU, 0xbc26ca313cd2d526U, 0xbca3e0c43d88587cU,
  0xbd1c02ff3d332119U, 0xbbf131e63aa42eaaU, 0xbcafefd7bd6bf881U, 0x3c5d52a53cef1fd3U,
  0x3cfb273ebc18be09U, 0x3d972868bd98c650U, 0x3d65ed17bd23c750U, 0xbccc9451bb425024U,
  0x3a657ca13d5e3815U, 0xbd427c35bcf8a5acU, 0x3d96e3c3bd192e07U, 0xbd1ba02a3d533237U,
  0x3d723861bd429e1cU, 0x3d2fcc3f3b58cec2U, 0x3d93f3bb3d483897U, 0xbd0506e6bd96e2adU,
  0x3ba3ec863d887406U, 0xbcd66dcc3d7df6e9U, 0xbd474bdabc43804aU, 0x3d89237ebd881b8cU,
  0xbcf4e9eb3c26f769U, 0xbd0bfb92bcc6719cU, 0xbcde62863d6b2912U, 0xbda3f5fa3d432907U,
  0x3cd6dcc63bedd582U, 0xbcf6519ebd1c1ac5U, 0xbc3b56dbbd81fb97U, 0xbd6619953cedc9fcU,
  0xbd3f6a3d3c4a4134U, 0x3d063b153ce9acb0U, 0x3d93ede9bc51f313U, 0xbb5fdb043d401961U,
  0xbd2e9cab3d831d36U, 0x3d2c1c4b3ba494e4U, 0xbd9a86cfbbda7f8dU, 0x3d9028263d2ef39fU,
  0x3d451979bd58c1d3U, 0x3d012e03bd423bbcU, 0x3b28e333bd838bc4U, 0x3d5d5a21bd80dec2U,
  0x3d11de54bc4640c6U, 0xbbde997abd854595U, 0x3c282a3ebc1c396bU, 0xbda26e483c77e2c2U,
  0x3cbe97c6bd685486U, 0x3d699971bc2e1e07U, 0xbba768bdbcc13612U, 0xbd94855c3d7b650dU,
  0xbd744fd9bd0a6eb6U, 0x3d679defbd877ca1U, 0x3d0cc2c5bd0df604U, 0xbd8561eb3d04d789U,
  0x3a8ff5f03ca75647U, 0x3d9118613d8057adU, 0xbcdc5a883bb62060U, 0xbcd14f9a3b8dc371U,
  0x3cc9c5ec3d4893e0U, 0x3d067a79bcd2457bU, 0x3d610308bc0df9b0U, 0xbd6587213d67154aU,
  0x3d49bec43cb9bfdeU, 0xbc997fd83936fa42U, 0xbd895250bc98924bU, 0x3d25ddb3bd3c5432U,
  0x3ce93660bc55c1b4U, 0xbd31da58bd7349beU, 0x3d04a7163d74b248U, 0xbd563d2dbb9c14fdU,
  0xbd3adfab3c981702U, 0x3d75cd893d71e693U, 0x3d2886ce3cdec536U, 0xbcef743f3d411906U,
  0xbd9dd7003df0b7a4U, 0x3e8794083aa8f1a6U, 0x3dc9b2193d19e2abU, 0x3b379b323e193574U,
  0x3dc4e4e1bd96e68bU, 0x3c8743693db4f84dU, 0x3db218683d7c7591U, 0x3d5b97d4bbb3d232U,
  0x3bc2dd7bbc00f377U, 0x3ea5c93b3adfba10U, 0xbcbfdd563de0cc95U, 0xbda849743d7bc9f7U,
  0x3dc6b7dcbd27f00eU, 0x3ddc02533c849349U, 0x3cc57b0d3d53dea8U, 0x3e3025f5bc165f7fU,
  0xbd9b97153cfab07bU, 0x3e16dbb0bda0b710U, 0x3cf256283e34bbafU, 0x3d093ac73e04fd35U,
  0x3e0ab8e0bd6be668U, 0x3dda093a3da79cd5U, 0x3cc88971bc611c6dU, 0x3db6350d3b845ab0U,
  0xbddb27413d933240U, 0x3e83f99bbda69294U, 0x3d86ee043cd29665U, 0xbcf7fdbb3dd8ed2cU,
  0x3d79ac103d92852aU, 0x3decdbe43ddf03dcU, 0x3cf801a23c8b594aU, 0x3d8f854abd8654d6U,
  0x3bf79ca83db52bf9U, 0x3e50c21bbd69fcdcU, 0x3cc756ee3e06d4bbU, 0xbc49260f3d91fc7eU,
  0x3ce401c23d4d52daU, 0x3dc9e7113d9dbb28U, 0x3c35e93abd1670ecU, 0x3e09ae70bcdb85f3U,
  0xbdd87ea63ccb417dU, 0x3e1ab94a3aabe76eU, 0x3df9746d3d965901U, 0xbdd952853e1eb217U,
  0xbac36b463d0d3c8cU, 0x3dcbc55e3c45820bU, 0x3dcdb9ecbd69bea3U, 0x3dcbe5c7bd406d65U,
  0xbd9877c63c1cfcb9U, 0x3e8cd282bcd0106cU, 0x3ca9f6ef3da3d6b2U, 0x3b0e9cdc3de163ccU,
  0xbbb930133db0e473U, 0x3e0159443baade7bU, 0x3d746034bd94fccdU, 0x3e17f5273da2da2eU,
  0xbba9ddab3db2962cU, 0x3e76d222bda7a540U, 0x3db95bbc3e10a0a4U, 0xbd547285bca30056U,
  0x3d6ba11b3c51d72fU, 0x3d30d3b23de4ed82U, 0x3ddda11bbcfee419U, 0x3dfe84913c484332U,
  0xbd9ea9833de0796dU, 0x3ea64ade3a6ee2c6U, 0x3c963f4e3c683066U, 0xbccf21ea3d0b12efU,
  0x3d86f8e6bdd5d8afU, 0x3db2ad24bb96bd71U, 0x3d2f5f6ebcd1ebf5U, 0x3dac5a413cfbdcc1U,
  0xbd66795f3d4c2f0eU, 0x3e71b817be000a60U, 0x3bd9dc9e3dcd6cc5U, 0xbc8ab3f73db5f723U,
  0x3bac3547bda4b436U, 0x3e0da3b73de7240fU, 0x3dec54bcbcd7235eU, 0x3d035d61bd25165fU,
  0xbdb462a63d3631f4U, 0x3e59dd90be14e526U, 0x3db01ee63dce69f3U, 0x3c3b408d3de61301U,
  0x3d17564cbd018e1fU, 0x3dde59e73dd9cd31U, 0x3d43abd83c6147baU, 0x3dff20883d415245U,
  0xbe1224a33cfe7eb3U, 0x3e42327abdb0d533U, 0x3c1d791f3d9f999dU, 0x3c6952683de24456U,
  0x3c5cb53bbbeeaac4U, 0x3db35b153e1b9b74U, 0x3bd959b33b961450U, 0x3e0308e73cb94cc3U,
  0x3c61e94f3ce915c9U, 0x3e858f48bd04857bU, 0x3cb3be903cd59532U, 0xbdd8ec943d9385f5U,
  0x3bea98dabbb5262aU, 0xbc4989af3d86ae5bU, 0x3e280cbf3d6ad66cU, 0x3e2df5f33d9bb0eaU,
  0xbe05f4fa3dcdbf18U, 0x3eace2b2bd3c1b3dU, 0x3c7e24ae3e04fae9U, 0xbd504f093c83ed44U,
  0x3d486c613cb9c564U, 0x3c715e7e3de55562U, 0x3cbe5d373cfb5d39U, 0x3e0ae0a83dab585dU,
  0xbd95fd793dfb3d6fU, 0x3eaa0e4abce97381U, 0x3d28942c3d0f91ddU, 0xbd9aebf73d376c7eU,
  0x3da5f4603d03870eU, 0x3d90d4e83dba5d9bU, 0x3d4288fbbcd5a3aaU, 0x3e120a68bd6fedbcU,
  0xbd6020633cebe0f0U, 0x3e93fb6d3cf393fdU, 0x3d56a3b33d559bfaU, 0xbd8ba5b63db3c746U,
  0x3d3a3a26bdd092ebU, 0x3df0b2c33d8b3226U, 0x3c9876313c5ca46fU, 0x3e3d9eda3d4273e9U,
  0xbc7056dd3dbc1e03U, 0x3e9b85b1bd903d1bU, 0x3dd5be123e025647U, 0xbdc047fa3de00bfeU,
  0x3cfc2f4dbd2101a6U, 0x3d80ce083d2550bbU, 0x3dcd41e1bc077901U, 0x3e2efd1f3d043489U,
  0xbe1028173dc5576fU, 0x3e4bc8f6bbdb6d07U, 0x3c3b04203d7e81c5U, 0x3cb34ed63e17f181U,
  0x3d9539ba3cbe3459U, 0x3db0aaef3c400a4cU, 0x3dfbdd703abd0a1dU, 0x3dba36c33cb13353U,
  0xbd36d1753d3776b1U, 0x3e7b9f7ebd46a098U, 0x3dfb7d723e2dc745U, 0xbd02aadb3ccfaef4U,
  0x3d66c0d63ca97b20U, 0x3da9dfd63ccfde26U, 0x3dc6c982bc97aa17U, 0x3dce950b3ccd18b4U,
  0xbdd1768b3d183aa1U, 0x3e37fb9abd06aa5cU, 0x3cb97cda3e1c4cf5U, 0xbc326a143d3ae57bU,
  0x3d7c1b8ebcf1b49aU, 0x3c3ca0433d3f13d6U, 0x3d8b5d1f3b280ca3U, 0x3dcd31f63c8c223bU,
  0xbd67e4033dfa6d2bU, 0x3ea307f1bc3a59d4U, 0x3db29e663dfb1682U, 0xbd9f55153d8f822bU,
  0x3dd23917bda8371dU, 0x3cafb4063d859dadU, 0x3cfa897a3d0e2252U, 0x3e16c1acbc7c9ad2U,
  0xbdc107403d2a524cU, 0x3e89cec23d20dbaeU, 0x3dfd9b5c3deda83bU, 0xbdb2a6babc983271U,
  0x3d9586583be8779bU, 0xbcb85e883db93c96U, 0x3de8e83a3d79e4d8U, 0x3e1459703d107d8fU,
  0xbd82c2013df3cfb9U, 0x3e6670d2bd62b307U, 0x3b8c9cca3dcd70adU, 0xbd72eda43c4cb7d8U,
  0x3d62459bbd840842U, 0x3e0f38ce3e06122aU, 0x3dc619cc3ca8bd1cU, 0x3def8bb53cdf490fU,
  0xbdb246933e02e443U, 0x3eb00544bc6da98eU, 0x3cac413f3dcf9c4aU, 0xbdcf3aa93d0510b6U,
  0x3c7e94bfbd2625dbU, 0x3d3be86c3db9033fU, 0x3d4dbca1bcdb63c2U, 0x3dda5210bcefbc4cU,
  0xbd3615a13c6b7ac1U, 0x3ea85319bdf81ee9U, 0x3deadbe03e363cb8U, 0xbc7d0b6c3e1c74e9U,
  0x3d2325153c5fd67aU, 0xbb769a283de6faf1U, 0x3d67866c3c83f5c1U, 0x3de66cb73d94f99aU,
  0xbb259b403c3009fbU, 0x3eac0e75bd714b64U, 0xbd9f7ab63d862193U, 0xbdf942fe3db7f072U,
  0xbbaa8a5abc36d2a4U, 0x3dc964683e0ae05dU, 0x3e0ff10ebda85364U, 0x3dece2b63d5ad75fU,
  0xbe127a5a3dff6caeU, 0x3ea74515bdd46262U, 0xbd2da7243e0caefdU, 0xbcbc073d3e03c97fU,
  0xb9afb4923c5052b3U, 0x3da33e073d06e4a8U, 0x3e26afc7bcaae85dU, 0x3e365da8bcdf0a9dU,
  0xbdce43ec3dda35d5U, 0x3e4f091a3ac6920cU, 0x3d99f1ad3df62b2fU, 0xbd9fcee83d3694b7U,
  0x3d3fd1b6bc9ccc67U, 0x3dadeaa43c4c7668U, 0x3def9dd2bc39c41dU, 0x3d3ccde43db16786U,
  0xbd925f5c3d4a0f69U, 0x3e56ef80bd8b9f23U, 0x3ce4b79d3da15bb0U, 0xbc9f25263d6f268bU,
  0x3dee2892bc9213d4U, 0x3c23068c3de55c58U, 0xbc142d503c6e8b66U, 0x3de897bebd554263U,
  0x3dd162b53dab01b9U, 0x3d87eb80bd0db9fdU, 0x3d36b9ec3e0d059bU, 0xbda547e6bd110353U,
  0x3cb94efa3c8f33afU, 0x3d8811833b609c8dU, 0xbbf67d7bbd9ace15U, 0xbce674e9bcc55196U,
  0x3de2bac9bdd74f18U, 0xbd85f5753d009b0fU, 0xbdd5e99bbe083621U, 0xbcb9204bbe138737U,
  0x3ba07ed33d9cbc0eU, 0xbd9a3fc3be1983a1U, 0x3d01f8e5bd403026U, 0xbe219ad53d058703U,
  0x3b9f05e3bd98b794U, 0xbe0a75e03de835cbU, 0xbc0e4b4e3d9b7216U, 0x3d81e589be1bf8b7U,
  0xbd6a6392bd473ce4U, 0xbdf4fa4bbe16d396U, 0x3d5b8d973da9375cU, 0xbd160a47bc707718U,
  0x3d617f69bd7d0ed2U, 0x3dc780603da5bcacU, 0x3d9624ae3e13d1c2U, 0x3e2cb9bbbd83664bU,
  0x3dda1d153da3f20eU, 0xbd825b3ebd6a4855U, 0x3e08219abd235410U, 0xbd833e533c285b31U,
  0x3dc5b67d3d0ed9c4U, 0x3cb6ba943d521010U, 0x3dc65e3b3dab6567U, 0xbc48b828be11e0caU,
  0x3d70312a3bf5ed25U, 0xbda5299ebd434657U, 0x3c8378a53c8af21fU, 0xbb879a313d17b5f8U,
  0xbd23ef1bbcd36afaU, 0x3db329fe3dc61fe2U, 0x3d79929b3e40a6ddU, 0xbbf3e564bd793ddbU,
  0x3d7532fdbcb94487U, 0xbd38c227bdd6fc9fU, 0x3d4c19d0bcf9bc1fU, 0xbdb9aaccbc0a72f8U,
  0x3c2404073c76dc3dU, 0x3e0feb93bbe89809U, 0x3b31392a3dee8201U, 0x3d24eb19be302250U,
  0x3e12e4183d9b4dffU, 0xbcd2497bbd31dc35U, 0x3e06ef8cbc0b5092U, 0xbc8bfa6d3c732774U,
  0x3d0e7812bd3816b0U, 0xbd1d30673db42753U, 0x3d118a043e009785U, 0x3dabb625bdf34fc7U,
  0x3d370212bc0eb317U, 0xbcdcdafbbdcaf4cfU, 0x3e0c368cbd6b77d7U, 0x3d5faf6ebd3a7b6aU,
  0xbd55bea7bc8cff32U, 0x3dcbb0473ddbde16U, 0x3d677ed83e478758U, 0x3dae87b4be1cb549U,
  0x3ddc2566bc6f18dbU, 0xbdd0b551be007de2U, 0x3de44037bd467343U, 0xbc74c915bc72a979U,
  0x3c4af5d73cdbe3beU, 0x3d9dfaa1bd5191d8U, 0x3dacfba13e2fb336U, 0x3db9ee33be2e4db4U,
  0x3d0faf603de17ca1U, 0xbcd21b93bcfa3167U, 0x3dd35c1abc98c068U, 0x3ccd9fe8bcef8276U,
  0x3a250c023d3b77f0U, 0x3e06a37f3db5b26cU, 0x38c7335e3e4863a1U, 0x3d7b06a6be1ac5ebU,
  0x3dc5dc563c94d6f4U, 0xbdbbfe723c86b225U, 0x3e1b587a38f02d92U, 0xbdd47407bb5e90a7U,
  0xbd0fcf82bcc27847U, 0x3c2fdc30bcd94acfU, 0x3dab7bb93da7d960U, 0x3de434c0be166924U,
  0x3da713303c8273c0U, 0x3d4d882dbd52519bU, 0x3e338b9c3d36ca21U, 0xbd0a1f40bd3f2afbU,
  0x3bc4a6533cc2b911U, 0x3e2b04aa3d926988U, 0x3d56ebb63d45fc2bU, 0x3d349f4cbd58d732U,
  0x3c0d49843d8d563eU, 0x3c544754bbe06d63U, 0x3dd7a5c43b63515aU, 0x3c230d703bf6d66eU,
  0x3c9ae080bcda33b1U, 0x3c54c5653dc861cdU, 0x3daf04183d832466U, 0x3de9bd15bcce48d8U,
  0x3d7442a1bc10da0dU, 0xbcaf3a6bbca33f71U, 0x3d27b925bcd20e5bU, 0x3cb50f233d3d2cf5U,
  0x3c113e54bd51edc2U, 0x3d665bd8bc571ce6U, 0xbcdff0313d589c86U, 0xbc8c6f46bd1f3b89U,
  0x3e09199939be0622U, 0xbdb87085bd364d30U, 0x3e28c834bd13001fU, 0xbd1e492d3d68203eU,
  0x3c988fa33da23aa5U, 0x3de24fcd3dd33913U, 0x3ca2d57b3db59fecU, 0xbb338752bdee1d23U,
  0x3daa57c03cd2c315U, 0xbd2b2bbfbcf8e5a8U, 0x3e07c0b83d934ab1U, 0xbc53935a3d29c068U,
  0x3c2ba2b03bedf23bU, 0x3d9e27153bb4bf79U, 0x3db205c63dd41489U, 0x3d9bc221bd9a8f80U,
  0x3dbee1de3e0122f4U, 0xbd8d2fff3d02fe69U, 0x3e30a26f3d4d5a14U, 0xbd847dea3d944b9fU,
  0x3cd8e0e2bd1d9a00U, 0x3bc6690d3d3ea6c8U, 0xbcb65b0b3e513c9bU, 0x3e0981dabe312be4U,
  0x3e40d04f3de5ac4cU, 0x3d72d592bc0dee7fU, 0x3d171da43dd2702eU, 0xbcab5db83d3550c8U,
  0x3daa39f6bd8757a0U, 0xbbe509ee3d9bc97eU, 0x3c28b36e3e35b591U, 0x3caea1e3bd58bd82U,
  0x3e2c00b0bd363645U, 0xbd2ba55cbd7979dcU, 0x3d6eb1d33d9c6650U, 0x3d028ed83bf88e6eU,
  0x3c79a1cd3d612fe0U, 0x3d8ee2e03dcdd045U, 0x3db88cd33e63608bU, 0x3c60c0cabe21e5f1U,
  0x3da952663d07c6e6U, 0xbdbba9e03d2bdb6eU, 0x3e0c7c19bcb4d09bU, 0x3c11e0523c335652U,
  0xbcfb7936bc8754abU, 0x3d275bc53daf1c1dU, 0x3d30603e3e213d26U, 0x3e1c7f11bd7985a1U,
  0x3d9e133ebd21512aU, 0xbd199b80bdd6ee9bU, 0x3db8b36bbca6327fU, 0x3c3a070ebcd25466U,
  0x3d710acc3cdf3c57U, 0x3e2732783d868b78U, 0x3c55107f3e273ac0U, 0x3dd33a47bdd30705U,
  0x3da247173cbc9506U, 0xbdcf454ebda7d7cbU, 0x3d0e926fbce8f9d7U, 0xbd37cb943ce11110U,
  0x3db7e4e03d1cc9a3U, 0x3dd946453ddc7231U, 0xbd81b8b23d897035U, 0x3da0f84cbda3df65U,
  0x3d3107643d45cec2U, 0xbcb55c25bccbac41U, 0x3e2fc19f3ca41e84U, 0xbd525aca3d333d86U,
  0xbce715603d12c8cdU, 0x3e28da253d5d56a5U, 0x3d6035e43d1d2a1fU, 0x3e1ff91cbe2d5cffU,
  0x3dfe44543cd117a6U, 0x3c08e5f0bc9b2a10U, 0x3e076fdcbd392538U, 0xbd0f66bebd47fd32U,
  0xbd9efb793c89f127U, 0x3d4d3c003da8df2aU, 0xbd53b6823d21c84cU, 0x3d499024bd52c02eU,
  0x3daf0e713dc1b685U, 0xbce969bb3c73ba4cU, 0x3dc80aad3d987ab1U, 0xbd156209ba94b9ccU,
  0x3cc640bfbd79b89aU, 0x3e06b3523d9e2454U, 0xbd535e323da29a46U, 0x3d38dfa0be5049ddU,
  0x3e0f72393e07b159U, 0xbcac5307bdeecfa6U, 0x3d7cd98d3a6be586U, 0xbcf0099b3d14e2dbU,
  0x3d14de703c9bda43U, 0x3c834c5d3d5f7cfaU, 0x3d76b88b3e2b842fU, 0xbc986490be1306a3U,
  0xbc96e11d3dbeab1cU, 0xbd6f3b16be009148U, 0x3d9073e43d325afbU, 0xbd3777cd3d944eb8U,
  0x3da01487bd036524U, 0x3da61080bcd88c0bU, 0x3d8a93aa3d23bd38U, 0x3df5a962bd876f61U,
  0x3cba1ae4bd5b43bbU, 0xbde7ebe6bd6027b4U, 0x3b683e893d03487dU, 0xbdd5a611bbad556fU,
  0x3d8572e7bd1052a8U, 0x3de64f293d93b2f4U, 0x3c4bb7dd3d7c6ee5U, 0x3dd88ca2bd5bfa3dU,
  0x3c2efe963ba11302U, 0xbdeeaef4bd1acdc7U, 0x3e0902a03d2d5b1aU, 0xbdadd573bd079786U,
  0x3d5ecb473d11ae85U, 0x3dfccbda3d129d12U, 0xbc0bfcf13e435b6aU, 0x3d822a64bdd6668dU,
  0x3e21bb5b3d129ba0U, 0xbda456b2be06450fU, 0x3dfbf8223a039190U, 0xbda9e1823bf80736U,
  0xbc2f44de3d2fdf80U, 0x3d9515cb3da31db4U, 0xbd1449933cd943a1U, 0x3db2ae41be4a6d4fU,
  0x3d9644a7bc172894U, 0xbd03e41abddcf0dbU, 0x3e10019fbd50bfd8U, 0xbda2e7fb3d7811fcU,
  0xbc56ec173d768c88U, 0x3db458a63bcfe1c0U, 0xbd6463a83deb7579U, 0x3caae0fdbdb246f2U,
  0x3d21f5fbbd1db43eU, 0xbdbc1f5bbd8c0810U, 0x3e0fa6703d11207bU, 0xbe066363bce0d637U,
  0xbc063c613d80d207U, 0xbd6aee123d8cb471U, 0x3b01248d3e38504eU, 0x3e680727bd9a08d5U,
  0x3d9a89703dbba14eU, 0x3d60e8b13e04f39aU, 0xbcd1ec823d17d6aaU, 0x3d42621d3cb0fca3U,
  0x3dc35a343cef9afdU, 0xbd908e2d3e04044dU, 0xbdba92023dd0f6daU, 0x3e7fe306bd69fd6dU,
  0x3dd12e5b3d4737faU, 0x3b612a3d3d97b2e5U, 0x3dbc84383d929b43U, 0xbd75525f3c031a53U,
  0x3dc582f23d4940f6U, 0x3d3cc2c3bc8d2bc1U, 0xbd9ef5093e2398deU, 0x3e2c1114bd8a5daaU,
  0x3ddf88ca3de213b2U, 0x3cb760763de072e0U, 0xbd022b153c2c41bcU, 0xbd9245543ddf6eeeU,
  0x3dc1a7693daaf55fU, 0xbc4f1c673c370f5dU, 0xbd9539113e7ef083U, 0x3e4d37f2bd9e26d7U,
  0x3d4b1e543d42fe8bU, 0xbd37a8043d41c3deU, 0xbcbad5dbbcbb432cU, 0x3bff38023dfbb03fU,
  0x3d14e0463d7576c3U, 0x3d955f2d3c62cc14U, 0x39533eff3d6be396U, 0x3dd4abfebddad9d3U,
  0x3d152c823da3823dU, 0xbcaa1d453ddfe0ceU, 0x3d457018bd108498U, 0xbd186b8c3df5d93dU,
  0x3de8bf1f3d42fc51U, 0x3ba635d03d991d55U, 0xbc66caf73e61fba8U, 0x3e24c1d3bdb765b7U,
  0x3d6335c73d190281U, 0x3daa4ae63c8fa740U, 0xbcefbaa1bbd2c11dU, 0xbd1b4e8d3b89bb7bU,
  0x3d26429a3d9dbdb3U, 0x3c01fce7baef3c2fU, 0x3d702f843e4f85dbU, 0x3d9d58e6bc7c9657U,
  0x3de1c2b63e0c78adU, 0x3d0ac1113d8ff458U, 0x3d9e23313df40308U, 0x3d0fff8b3d9905bdU,
  0x3e07195a3d904506U, 0x3cc2b5223d24a9f3U, 0xbc3acffe3dac605bU, 0x3e13ccd4ba65f1dfU,
  0xbc30420b3dab5143U, 0x3c6016273dce91b4U, 0x3dc62f1a3d105ab7U, 0xbbe4e3773bf58776U,
  0x3e2ab78fbcb3ec73U, 0xbd22ca543cfdb37bU, 0xbcccffbd3e0da4ecU, 0x3e47e66ebd2d1ed5U,
  0x3def5a0a3d31102fU, 0xbd68e9193d25d808U, 0x3c1240f4bd2494f7U, 0xbda0e1fb3dec90a9U,
  0x3e0605f83d570dffU, 0xbcc209383deff3b8U, 0x3c1a9e2f3d845b2cU, 0x3e84eebebc55b893U,
  0x3e0561543e21d0a6U, 0xbc4865523dd72e3dU, 0xbd2e66de3c67f115U, 0x3d8b9e5c3d8f680bU,
  0x3da0c4a3bd628045U, 0x3d2858303de664f1U, 0x3cfc89093e1555c8U, 0x3e88715ebdc494dfU,
  0x3d427e863e31a49cU, 0x3cac49fcbc94b1ecU, 0x3dbef7273d1455e1U, 0x39f359823df15079U,
  0x3db351133d9829f9U, 0xbd96ed713bd72c92U, 0x3d22a27e3e2054a4U, 0x3e8801c2bc2a49e1U,
  0x3df685103ddf4622U, 0xbcd964013d6b18b0U, 0xbcc37c80bc7b50daU, 0xbc996ced3ddc9be0U,
  0x3dc205443d973904U, 0xbd5359743dfb1eb1U, 0x3d913a8d3dc11707U, 0x3e4170f2bdcb93d3U,
  0x3dbce9023d119a99U, 0x3d443fa73d0ad163U, 0x3d0765343db95425U, 0x3cff2ce03d9adacfU,
  0x3dff76df3db77be9U, 0xbd9fa0153dd205f3U, 0x3d326dbf3df1e9b4U, 0x3e4052bfbd53b08aU,
  0x3e027ebd3d9aad79U, 0x3d5268f33d24ab9eU, 0x3b6b7e033d945950U, 0x3d20d4333dbfca91U,
  0x3dc12343bc52b7a0U, 0xbd3763d53ded20fbU, 0xbcce0d453e0541d5U, 0x3e4dcf78bddd3a94U,
  0x3d0e85863d84fb9bU, 0x3d100f613db9724dU, 0x3d91dfb5bd8cabf5U, 0xbd8609303ddbc530U,
  0x3d57afeabd3ebbcfU, 0x3c4413a73d18c18fU, 0x3b9ca6293e59f3e1U, 0x3e827fb3bdc58161U,
  0x3d1b7a3e3e4ad6c9U, 0xbd1debfcbb5b0713U, 0xbc81ef513d9572b2U, 0x3b9988463dd40384U,
  0x3df03d373ce3a064U, 0xbdafb2bd3da8767fU, 0x3b6686a53e5bbe57U, 0x3e47b90bbdaa9f11U,
  0x3ad362313d9b56b2U, 0x3cb12dd93cb11e99U, 0x3cf8eb8a3cd36b9eU, 0xbd1da0343de54839U,
  0x3e0555043db9ea61U, 0x3c094789bc593aaeU, 0x3d5d65a63d80923cU, 0x3e4a7a2dbd761234U,
  0x3df73e3a3e14ff81U, 0xba659df93da0ccebU, 0x3bcc80613db42de3U, 0xbd4d79343e050620U,
  0x3d9c8258bd333741U, 0xbd2a53bd3dafb01aU, 0xbcf549c93dbb2576U, 0x3e42dfedbddda720U,
  0x3d00e1093e28d983U, 0x3bce30973d86a765U, 0x3dbe1e8bbd368af8U, 0xbb8743d83c4d2434U,
  0x3df73174bd2e1c23U, 0x3cf85add3d068ed0U, 0xbca230953e2a63e8U, 0x3e2a9fa1bdaa64d1U,
  0x3d2628313e3f24bcU, 0x3d733e8a3d42529bU, 0x3be41190bafc4f17U, 0x3d52d5663bc765a0U,
  0x3d202f563da7e186U, 0xbcb6e00b3da2d37fU, 0x3cc58fcc3e22967bU, 0x3e8218293d152200U,
  0x3ddb48803deeb021U, 0xbd4124773dce73a9U, 0x3e03b4edbc92d8a4U, 0xbd1f39743c9332d7U,
  0x3d1c15df3d2fce46U, 0xbddcffd33cf12d13U, 0xbd7407e53e11aa75U, 0x3e19a3f1bdebab24U,
  0x3e0a9a873d803705U, 0xbc8d4c153cf134a4U, 0xbced2e7e3dbde433U, 0xbd9ac24a3d0b6ab8U,
  0x3e24203f3d59808aU, 0xbe0c569f3de4875bU, 0xbd47f4e03dcdb632U, 0x3e1accf5bd01ed6dU,
  0x3c937c563ddec029U, 0xbceaf5ca3d54f773U, 0xbbd03d053dddfe62U, 0xbd754af53c0d1042U,
  0x3db012383d4ed74bU, 0x3d830b723d52e5a2U, 0xbcd18bb63d699cc6U, 0x3db0f96b3a2feb57U,
  0x3d2656603df18a2bU, 0xbc172af93c513fa5U, 0x3d8f8eb1bc4d46c9U, 0x3bea960a3d84bc34U,
  0x3dfb6cd7bc036f1fU, 0x3cbd3b883cd3392fU, 0xbd9fe7983d767f2bU, 0x3dee2491bcd7a674U,
  0x3d8a22623dc69a8aU, 0x3c2886623d86c3dfU, 0x3d7911373d114fe0U, 0x3d552e98bb811713U,
  0x3dd4c3ad3d5ae250U, 0x3d0525a83d430c9bU, 0xbceeef0b3e17e4c8U, 0x3de0726abdc95dd3U,
  0x3cbd7fd33e0bfc13U, 0xbced6200bbde7e98U, 0xbd62a5ae3b82bbc6U, 0x3ac4333c3d567e9cU,
  0x3d089e4ebd6c9b09U, 0x3d8b78aa3ab600fbU, 0x3c7469053d96b51cU, 0x3dd0fefebd6caa06U,
  0xbc5abb883e2e2452U, 0xba48b9073d6070a4U, 0x3d3840e53d04020fU, 0xbdc534da3d9b9cf8U,
  0x3e05ec263d75aea3U, 0xbd8fe57f3bbb8f57U, 0x3d0fe5f03dff1a8fU, 0x3de71ef5bd8b725cU,
  0x3ce9e3fc3db28c88U, 0xba5ebeea3dc3179fU, 0x3d9632fbbc22e021U, 0xbd26fafe3dbbf46eU,
  0x3dcb7380bc0601c6U, 0xbb1fc4613c66e93fU, 0x3cfe8ae13dea1b83U, 0x3e32122bbb6e5c75U,
  0x3d8818c73e2a4dd3U, 0x3cb2d347bc825811U, 0xba347f833d848925U, 0x3be861853dfa0216U,
  0x3c67e7e43cc7c2e2U, 0x3e452ac5bd309acdU, 0xbbbad3873dd08e5dU, 0x3db416a43dd5d0b0U,
  0x3d2aefc93d02a411U, 0xbd0bb8493b8a59e9U, 0x3d71b339bdb21172U, 0x3c017fe83d2faacbU,
  0xbd8249d93d4792a6U, 0x3e13dca33c644312U, 0xbccf73473dd46041U, 0x3d26ef993d284c18U,
  0x3e3feb85bd62d145U, 0x3c8e924d3e0545ccU, 0x3d99cef9bd513b34U, 0x3d98e72abda7ee2fU,
  0xbd91bb373cbc1621U, 0x3e7541a2be26bfeeU, 0xbb6ccac13e079932U, 0xbd97cb6a3e5da870U,
  0x3d12028c3d1c934dU, 0xbce86d483d71975eU, 0x3ddbd611bd71d6e5U, 0x3e4724ecbde7a66aU,
  0xbe2255ad3c7dd076U, 0x3e0d3d01bdee0a4cU, 0xbdf257c7bc67cb97U, 0xbdcd53da3de994b3U,
  0xbcd10062be3c6222U, 0x3cf96eec3d8ffeb4U, 0x3d569697bdf0a884U, 0x3e126b49bd888d30U,
  0xbd9f223b3be61c59U, 0x3d394b2dbe22678dU, 0x3b82469b3d00ea02U, 0xbe41790d3e07db7aU,
  0xbd41eaa8bdeb7541U, 0xbd88f0693c647390U, 0xbc728bb4be029b9fU, 0x3e2c3495bdc0d7a3U,
  0xbe5327d9bd180db2U, 0x3df57b8cbde6771fU, 0xbcb6e9febcc107b7U, 0xbe0b04ab3d3b1918U,
  0xbcfc4779bdfe99bcU, 0xbd2c26453cbcf7a2U, 0xbd73c55ebcf8ac4bU, 0x3cdccf37bc850bd4U,
  0xbe3e4f463da5e161U, 0x3e2bcfd4bda0d0b1U, 0xbced882d3c430419U, 0xbda8c00f3de49579U,
  0xbc95ba94be2fc1a7U, 0xbd611d823dfde6edU, 0x3952fc84bdfced21U, 0x3e0c2094bda15397U,
  0xbdb98b28bd250b42U, 0x3c9da76bbe1ddfacU, 0x3bcb09053d502502U, 0xbdf67bbe3e0c50e0U,
  0xbda2571cbe25a0abU, 0x3d739c7cbbb83b3bU, 0x3d7c6819bd29d720U, 0x3dd33cf2bc90460dU,
  0xbe0d9e60bc352a51U, 0x3e22427bbcbe3c69U, 0xbdfc28433d666553U, 0xbe14ebac3dca2c3fU,
  0xbcf693e1bdd07a85U, 0x3cda140b3dddf5adU, 0x3ad60d7fbe234d38U, 0x3dc87bbabddb13adU,
  0xbe113441bd3b3ab0U, 0x3dce0a8abd997654U, 0xbe06cb77bd314a8dU, 0xbe4e04323d8fac49U,
  0xbd645b68be354775U, 0x3d2883f5bcc90f56U, 0xbd34cc9ebd04291dU, 0x3de7d8b9bdac9574U,
  0xbd36a733baa15fecU, 0x3d8f26c7bd989877U, 0xbe258820bb86f19fU, 0xbe22e0d03df05c97U,
  0x3cc90e3bbdb6cd0fU, 0xbdcffb343d340d0fU, 0xbbca6b4fbe2cf5d5U, 0x3d1ad895be192aa8U,
  0xbe011f2d3d2ccac8U, 0x3da601a3bce59592U, 0xbd018d2ebb25c386U, 0xbe5645433d994734U,
  0xbc8644a7bd86fde3U, 0x3cd729323d8341adU, 0x3cf6a976bcee6a8cU, 0x3dafd663bd89a515U,
  0xbe16d1033cc29366U, 0x3d599e9abdcb0a37U, 0xbdd3bfc03ddf711dU, 0xbe1776393d5c1ac3U,
  0xbd5f0eb7be1de14aU, 0x3c5e37503d989166U, 0x3c092733be08cde8U, 0x3da86878bd98bb18U,
  0xbd5a4a66bd8b98ccU, 0x3d78e863be04f66fU, 0xbe16773e3d63cad2U, 0xbe2f113c3c81df1cU,
  0xbbbb0225be0e3700U, 0xbb4539513d21902cU, 0xbc597bdebdc637f9U, 0x3db4ada2bcaa7575U,
  0xbd9c7ee1bc954860U, 0x3d70fca7bd77f469U, 0xbde5c6f5bd596e0eU, 0xbe68aada3d683c3cU,
  0x3d3cb0b4bd5da73eU, 0xbc94b6883c53f114U, 0x3d0023efbdc6ae4fU, 0x3c5fe75c3bbfd552U,
  0xbe0f9647bce5ea6dU, 0x3b1c0458bd935ffeU, 0xbde3f3a9bd05d457U, 0xbdfc85f93d3b4d80U,
  0xbc03895cbe017895U, 0xbd33ad853cb6e79aU, 0xbc874d62bd9f6800U, 0xbc48fefabd85d3c8U,
  0xbd5f2ff53d649c35U, 0x3db64d5bbdb80166U, 0xbcca3ca5bb7eed9dU, 0xbdf500b93e0e6c95U,
  0x3bc037fabe1f2a46U, 0x3d2089583d77a670U, 0x37eca319be005e7eU, 0x3df94948be1fac5eU,
  0xbe0ecbc83c0042b7U, 0x3e1a5006bd514d07U, 0xbd6479813cc072ecU, 0xbe3254f13dfd599fU,
  0xbbe4e767bd31f74cU, 0xbd0eba043d50139cU, 0x3d7579b0bd8d3a8fU, 0x3e069e2dbe012303U,
  0xbe3f96d1bd337b52U, 0xbc60db79be1b5a37U, 0xbd0e57523db7db44U, 0xbe3f55423e18fba7U,
  0xbc056d49bd967213U, 0xbd90c5f4bbee6cb4U, 0xbc51ab00bdfbb281U, 0x3d8a32f7bd9ad492U,
  0xbd42487d3d32bccaU, 0x3ddf53adbcb395b7U, 0xbdf0b0e03cf4f067U, 0xbe7153443c2bf91bU,
  0xbd455147be1e9d4aU, 0x3cb53e6d3c86e7a9U, 0xbd96609cbdeda952U, 0x3e0b2163bd334e57U,
  0xbe41720f3d200a7bU, 0x3d8f91e4be0fbe6aU, 0xbdfea7303da5cbd2U, 0xbe178d393df05727U,
  0xbdc17d7abe12a14dU, 0xbd2cac103d154f19U, 0x3c0d521ebd3fe72cU, 0x3c301e87bd6fe87dU,
  0xbd60ab5cbc5741fcU, 0x3dba595bbdf54a06U, 0xbe08e07c3bd41db0U, 0xbe3ea30e3d3bb079U,
  0x3d273217bddff21bU, 0xbd521b72baf08fd4U, 0x3ced4ef8bdfe82afU, 0x3d5be170bdcd1d24U,
  0xbdbc4c21bcfce7e6U, 0x3cf6834abd8f4ca5U, 0xbe14a54c3d36e584U, 0xbde505433dd560caU,
  0x3d1268cdbd5f9ea2U, 0xbd919fb5bc98b1eeU, 0xbce33d32bdd3b933U, 0x3dc75132bd818d23U,
  0xbe160ba73d5fafcdU, 0x3ddabcdcbe1383eeU, 0xbcbd6b3f3db25f01U, 0xbe5252153dd3fab5U,
  0xbc539c3cbddb81adU, 0xbd92529dbbcf8b8dU, 0x3cab1ea5bd84d6c6U, 0x3ca4d9cbbe13d9e1U,
  0xbe2010ec3db38e0fU, 0x3dd23403bdad8954U, 0xbd8cd2693d4c9d12U, 0xbda23a203d310799U,
  0xbd5f9675be2b1a3bU, 0x3d9b7e043d03923cU, 0xbd31d6d3be2577cfU, 0x3e263441bdd28d2cU,
  0xbd9795d4bcadaf5bU, 0x3de46509bd0a4b8cU, 0xbd5f530bbd0bbb0bU, 0xbe2a76943dda0b82U,
  0xbd0b6decbdb299a0U, 0x3d3d4b5cbc84db01U, 0x3c6b87aebdbc54d7U, 0x3d30e0c3be0ebe60U,
  0xbd34569a3db8305bU, 0x3da1b793be158e9aU, 0xbd92f896bb8feb6bU, 0xbd8775403e2cce4dU,
  0xbdb532c1bd816976U, 0x3ce3dacf3d127a76U, 0xbcc9fc5abdb61326U, 0x3dcac994be193e06U,
  0xbe1b89543da363e3U, 0x3e207ee9bd960202U, 0xbd92372c3d32be81U, 0xbe6cfd263dced802U,
  0xbcd50484be29e8b4U, 0x3d804db13d80df71U, 0x3cce83bbbe0e67c5U, 0x3e37d313bdacab16U,
  0xbe09d9b43dbd4964U, 0x3e0ee1d7bdf0500aU, 0xbe22ebeabbff7652U, 0xbe2f92073e1f91a1U,
  0xbce26379be190f55U, 0x3bbbaac13dcb1bacU, 0xbbe3a09cbd114280U, 0x3e308df7bdd0b325U,
  0xbdccff7f3ca52d71U, 0x3de7bd14be136e72U, 0xbdc7ffbcbc98389cU, 0xbe86225b3e2596c4U,
  0xbd5479aabde69596U, 0xbd8fe4a33e0aa6baU, 0xbd9f4b87be02bb96U, 0x3da1f42ebe0193afU,
  0xbe2dea643d92b458U, 0x3d95b184be18d5abU, 0xbd0c78323d3ce5cfU, 0xbdbc67ab3d950903U,
  0x3c16e850bdd37c51U, 0xbd5c38933d85173aU, 0xbd198ac8bd23581bU, 0x3e0ffb7bbe1111adU,
  0xbdb835cb3d964fe6U, 0x3df99988bdb5ab5eU, 0xbd1924473d18e45bU, 0xbe2e1e243e3b2478U,
  0xbd147b74be00b007U, 0x3d0171e83d331cfbU, 0x3c506647be0fb049U, 0x3e2a0355bdd6a0dfU,
  0xbd88824e3dc48c8bU, 0xbba455313d3756a8U, 0xbc1265dc3e962c89U, 0x3e09ede03beb9575U,
  0x3de25a89bc229dcdU, 0xbdc1dad33d805e92U, 0x3dc11126bd22e2deU, 0xbcbd2db1bd9ff408U,
  0xbdb8ab9f3c7f8ccdU, 0x3d7c0fd4bc323020U, 0xbd0a9ef83db33cbaU, 0x3d363a4dbdb08112U,
  0xbb882340bd8953acU, 0xbe19ea3b3813e8acU, 0x3d8529bdbd6d3703U, 0x3d98b3c93d0105b8U,
  0xbcb355e8bd584639U, 0x3d559d483d3acd9cU, 0xbdc241733e23ff4fU, 0x3dab7667bd9f31d1U,
  0x3d420bb63c3f83a6U, 0xbcaa3a4e3d86a823U, 0x3dccb4d3bd4ee984U, 0x3d3ff768bca83e6dU,
  0xbd4dd240bcef6bc3U, 0x3c40f26a3d9121c7U, 0x3caa9d093decd363U, 0xbc451306bdeea71aU,
  0x3cbbb83b3d5b800bU, 0xbd74dcd0bd3adc0aU, 0x3dc06814bde051e6U, 0x3d267097bbc2e573U,
  0xbdb7192b3b5402d1U, 0x3e26afa7bd406371U, 0xbd784c713dbff39bU, 0x3e2a740cbdef45cbU,
  0x3b3a1c583ccbd12bU, 0xbdf98e88bd01bd1fU, 0x3de02db0bdfc7a8eU, 0x3d1b6c02bdb2dccfU,
  0xb9beb2de3d458171U, 0x3d860e4a3d5f27e2U, 0xbdca66313e31c1fdU, 0x3cbd2aa8bdc7463fU,
  0x3d345fe83bf8129dU, 0xbcff46763dce68d1U, 0x3db0646ebd7358dfU, 0x3e053d843d13b743U,
  0xbd7c6525bcb55f36U, 0x3dd365753c86f5d9U, 0xbcceb2273de50d3dU, 0x3d83b0f1bddac97bU,
  0x3e1e1efd3c5bb9f0U, 0xbd82fa663dcf11d1U, 0x3dc6b7edbdac92d9U, 0x3b1907c93cd55999U,
  0x3c06f0bf3d521843U, 0x3de6856cbd88835eU, 0xbd0a06b93ddd98ddU, 0x3e33dbb4bd91accaU,
  0x3dc326dc3d82a867U, 0xbe0c2d0c3cdce6a2U, 0x3d25fb14bc3c4a45U, 0x3dab1244bd56fe4cU,
  0xbd2e58023d91b941U, 0x3d286219bc8be9c9U, 0x3b7e7e403e26eca4U, 0x3e4d3734bdd55399U,
  0x3dac23423d1aef84U, 0xbe0c8a7ebce36608U, 0x3e307e9cbd67ba8cU, 0x3cab43b0bde89a8dU,
  0xbd09a50cbc953553U, 0x3d62964ebd9d4c42U, 0xbde6a0833d48b76bU, 0x3d7c851cbd5a4e8bU,
  0x3db10d603d915c67U, 0xbd613eb53d3f40abU, 0x3d8f32e5bc20490dU, 0x3df44b38bd239508U,
  0xbcc59622bc83d952U, 0x3e278fa3bd524fc7U, 0xbdc4f5fa3e3ff9ddU, 0x3e0dc3debe08d193U,
  0x3d58dcb13d6b3503U, 0xbda25c243d65ec5aU, 0x3dce8eadbcabb142U, 0x3d7ea6543cefc52bU,
  0xbce2754cbce606f2U, 0xbc795ca23ab68158U, 0xbda45a3f3e43d878U, 0x3e0b19a7bd15d306U,
  0x3d7f95af3ddc16b0U, 0xbcd441923de1a69dU, 0x3df509913c96cf85U, 0x3e029d75b993308aU,
  0xbd6759c63c2ba618U, 0x3dc612563c484604U, 0x3c2d68d13e078188U, 0x3e578844bdc17db6U,
  0x3e2028763d36f427U, 0xbdcbdaf83d161eccU, 0x3dbcf6eebd7eaa51U, 0x3d70ad893cdea186U,
  0xbd1b7b073d74945aU, 0xbc1186473d988fa4U, 0xbdc9c4e53e2ca2ebU, 0x3dc0bd19be09192eU,
  0x3e1035a03d8893ccU, 0xbd5d0d843d73fa13U, 0x3de58a17bd63100aU, 0x3d024bb3bda5b93eU,
  0xbce898ff3c1b6c38U, 0x3d2b2bcabbd05930U, 0xbe1ff24d3e352bd2U, 0x3d9a79abbd023d2bU,
  0x3d4fddd03ca4b643U, 0xbcda5492bd4ef032U, 0x3dd10f1fbd321dd4U, 0x3cf5f57dbc8fed55U,
  0xbc1fccc6ba555bd7U, 0x3d39e2443c74fd5cU, 0xbcfb0e893e602854U, 0x3e10a903be0e420eU,
  0x3e0d82083c9f13b0U, 0xbd7cb2eabcd6894fU, 0x3d82f636be11eadeU, 0x3da505b9bdd99499U,
  0xbd68ce0e3c0c706cU, 0x3e19264c3d2bd964U, 0xbc9d4a2d3e4a0925U, 0x3e2446e8bd99886dU,
  0x3db86f3e3d76b261U, 0xbdaaf97a3d4d6049U, 0x3dd33b77bd16aa54U, 0x3c5df6a1bb231f3fU,
  0xbcfbb07c3cacf270U, 0x3c0d18003d7e9e9dU, 0xbd93dbf73de05913U, 0x3e1447a4bde39f98U,
  0x3d06a5443c8961dcU, 0xbd56eb29bd097870U, 0x3e10c75dbcd537a3U, 0x3c9b097fbd9d78f1U,
  0xbd60590e3bb2d237U, 0x3db596533d5cca9aU, 0xbc97b2cb3e3187eaU, 0x3e65ae03be264002U,
  0x3ded663f3d69fc2cU, 0xbde60b183dbdae8dU, 0x3e0506cebcba5e12U, 0x3de106a1bdb91f72U,
  0xbc7362823d29e1ccU, 0x3da003cc3d21b107U, 0x3c03f2413d7b144bU, 0x3dd7bb1abe05ae20U,
  0x3e107ff53cf97524U, 0xbdb44c6c3d363a03U, 0x3dad569cbdffb443U, 0x3c9a4f4bbde43c83U,
  0x3d37dc52bbcd9859U, 0x3d8c2cd33c800afbU, 0x3bede0fb3e16a99bU, 0x3e1aa850bbe72e26U,
  0x3dc71cfabcb32fcfU, 0xbc3f5379bc6161a5U, 0x3ce626f23b92f1e9U, 0xbc193deabd968411U,
  0x3c78b2f73d951ffbU, 0x3e0b684fbd3c5327U, 0xbdf8ec793e27b105U, 0x3d224640bd9c2767U,
  0x3d8dbcdb3da9b057U, 0xbd8b7e9c3d255cd5U, 0x3d94345abdb1606eU, 0xbc81b1dfbd3d0b42U,
  0xbce5de2c3c9750a7U, 0xbd039b193d01a584U, 0xbdb07faf3d43e2ffU, 0x3e3e3d7cbdb47ed4U,
  0x3d6cdc843d80a917U, 0xbcf077fe3dc7c218U, 0x3d8ccf21bca28b07U, 0x3dfd72d6bd2df47cU,
  0x3d2df83e3d7b8529U, 0x3e1b60a7bdb74135U, 0xbcfd681d3e6605c9U, 0x3e1afbb7bd934e6bU,
  0x3ddd54153c5e612dU, 0xbcecf7b1b9951e06U, 0x3ded9293bdd31f0eU, 0x3c753333bd6e5ebbU,
  0x3d3cd8b83d8fb6b7U, 0x3d8547923d8a0244U, 0xbd6c622f3d213cffU, 0x3e013f69bcc93a18U,
  0x3df6f49a3d8a6804U, 0xbdc925433dcdf5c0U, 0x3d4792d7bcd21f7bU, 0xbca22f033cdeafcdU,
  0xbd32bbc83d73436cU, 0x3decf7ab3d6abc9eU, 0xbd5744fd3e795f01U, 0x3e45e418bd224ed9U,
  0x3d07349b3d14a51eU, 0xbb66759f3da2f10bU, 0x3ceab0693caf78f2U, 0x3d839e05bd78e4a1U,
  0x3db7c242bd5a5e8fU, 0x3da93023bd81ea0bU, 0xbbb54f5b3dd91e78U, 0x3d90e403bd9a3a1eU,
  0x3dec86a23e1253f6U, 0x3baa22983d15ecf9U, 0x3e019aebbc80e06aU, 0xbc6a3ea03ca6088cU,
  0xbc321a1cbcf422baU, 0x3de00eb73afd86b9U, 0xbdeaefb73e25b704U, 0x3e3f870ebdfbee93U,
  0x3d9a1d8abcde574aU, 0x3c52b0d03dac697dU, 0x3df47d923ccf54f9U, 0x3dbcf084bb3411a7U,
  0xbd0b0767bc3237acU, 0xbcc3e69bbcc31f41U, 0xbd32c89c3ddb5eb4U, 0x3e260ac8bd4e370bU,
  0x3de62758bc96ecb6U, 0xbc0ff2f33ccc941cU, 0x3dea93cbbe07992fU, 0x3de67a803cea6810U,
  0xbd8fa2ad3da58ac5U, 0x3e59c75ebd694cafU, 0xbd8e99a93dbfee11U, 0x3d6601363b5f9e76U,
  0x3dad77003e0ff7eeU, 0xbce855df3d965facU, 0x3e389fc4ba0ac96bU, 0x3e496a69b95987a8U,
  0xbe10f3e13dc0dafcU, 0x3e3886abbd1d78a7U, 0x3d3156463e86bd99U, 0x3da7539fbd884c46U,
  0x3e26e4283d4c8efeU, 0x3d53bd453d553f9fU, 0x3e640cc6bd833533U, 0x3e49dd533d77547aU,
  0xbdb735293dc16158U, 0x3e99d039bd717d31U, 0xbd2cd7623ddd641eU, 0x3e0e6d103d5f296fU,
  0x3d78ecde3d99dda5U, 0xbbfcac0e3d549242U, 0x3e2fa83bbd8a25b0U, 0x3e4590f33cd95d1fU,
  0x3c6bde2c3d848870U, 0x3e054689bd932980U, 0xbd0408103dfe6cc8U, 0x3d8d48093db62e5fU,
  0xbab28fa5bd5f54afU, 0xbd6dbe883e071f37U, 0x3d8b7643bdce8754U, 0x3d331ce1bd7018a3U,
  0xbcf22b4b3d5842a3U, 0x3e4dcb0dbd9c1bd8U, 0xbdb9374a3db339cbU, 0x3d20625dbbb45155U,
  0x3def8d203daf2828U, 0x3ca2bdfd3e0039e5U, 0x3d7efa26bcc51102U, 0x3de45e353c0f2014U,
  0x3bae7a683d4923fbU, 0x3e446e61bbc9ccacU, 0xbd889fd53d83d524U, 0x3d5bb27abd3bc4fbU,
  0x3d1587dcbc8f65daU, 0x3da88ed13cd47e42U, 0x3e147f5b3ae89655U, 0x3daa22993d1efa98U,
  0xbbcb9dfe3bb3f6ffU, 0x3e44c5443d123145U, 0x3cba35f43db53095U, 0x3d96d9fcbd15da64U,
  0x3e1483d4bd1c7b0fU, 0xbabe0ab2380d48f8U, 0x3da63564bda5ef99U, 0x3d9f271c3d49f75fU,
  0xbcecd9453ca62277U, 0x3e0b86bb3d38943cU, 0x3da82ebd3d8933baU, 0xbce3c53bbcf17c44U,
  0x3c707f53bd4f00ccU, 0x3da814913c3e370eU, 0x3da2fcab3d8b0e9aU, 0x3cbef9b9bcf78a68U,
  0xbd2db584bce6d5f8U, 0x3de4babbbc53403aU, 0x3c2aad4d3d941588U, 0x3d4b066a3d5d1108U,
  0x3d07016f3cc6d41bU, 0xbc2b00ac3e0da2b7U, 0x3ca7ff4f3c80ad75U, 0x3dd80752bb414b36U,
  0xbdd252123def5354U, 0x3dfe00c23d50c31bU, 0xbd899f4c3e01bf5dU, 0x3d4bd4983d72f154U,
  0x3d07a6b83d4f3538U, 0x39698c3e3dca7bdeU, 0x3e148c14bb8722d1U, 0x3dd4cc023cc89453U,
  0xbb0a50ac3d44cbd6U, 0x3e714789bd1697eaU, 0x3c983d0a3d05dc26U, 0x3d0bc073bd5172fdU,
  0x3d30e6d43da97b90U, 0x3d7972513dd1114dU, 0x3da23768bd0fe3bdU, 0x3e120ff4bd6fc4e5U,
  0xbe11d9fd3df1cecfU, 0x3d969f233c1fb51cU, 0xbd2c754f3e443b93U, 0x3dbbb6ad3dc8c9d7U,
  0x3e021becbd312e21U, 0x3d09f2913d52ef96U, 0x3d86911cbd841da6U, 0x3d531197bd26a02eU,
  0x3c77e53fbcdaf1ecU, 0x3ddea2cebd398a96U, 0x3d365bf93e4ad7dfU, 0x3dc8613abcec9a12U,
  0x3dec1cd5bd3ef94bU, 0xbd4572c83e0a095bU, 0x3e150cd6bb8b010dU, 0x3dd8c701bc8b8745U,
  0x39967a843cd56270U, 0x3de311e8bdac1cc5U, 0x3c90a08d3e393b60U, 0x3d9487dbbc91c851U,
  0x3e1b0f5e3d0b2cd3U, 0xbbcf97dd3d224ebfU, 0x3e04a0edbdf22bfbU, 0x3e0527d7bc90e98bU,
  0xbd88f2e4bd09ad46U, 0x3e224b64bdce01b4U, 0x3bb25f463d596ce0U, 0x3d711c2dbd0da7f3U,
  0x3d9fdb90bd672259U, 0xbd39d3983dd9a6d0U, 0x3d631d4fbbb4ed59U, 0x3d906e6d3c87e7e5U,
  0x3d0c59ed3d79ddf1U, 0x3e38e1cdbcb085fcU, 0x3b9ca2f83d398dddU, 0x3d1716643d0ec0adU,
  0x3cc6dda7bcd31360U, 0x3dc8c2ecbb55d585U, 0x3a8e5a01bba15229U, 0x3d1d204abd93f3d3U,
  0xbd51fecd3cea7650U, 0x3de69543ba7e312cU, 0x3c07b3993e29c520U, 0x3df2453fbcbd9865U,
  0x3d5856b93d8544d8U, 0x3da35e2e3ddf8c60U, 0x3de207afbd0537cdU, 0x3d5b1342bd650f8dU,
  0xbc328a623cf5c97aU, 0x3e335571bc0615bfU, 0xbb4c81d33d645905U, 0xbb92d0823d8fcd15U,
  0x3d0d6d993d01666bU, 0x3d4b74d63d7076d8U, 0x3e289081bc6e42f9U, 0x3e0034eb3c94fa3bU,
  0x3cf7f0143d5e2586U, 0x3e0d496abdcc8710U, 0xbc48eafa3e3e66efU, 0x3e23bd3f3d213cf2U,
  0x3cdacf96bc6041c5U, 0x3d1a48443ca92356U, 0x3d991cd8bded8e5dU, 0x3d7b5fb73c09b6b6U,
  0xbdefc5073dae52dfU, 0x3e2129b4bd8f27f7U, 0xbd4bd96c3e42fb74U, 0x3e297b3fbc99356bU,
  0x3e20a3bd3d95474dU, 0x3d6ddf8d3e10ac04U, 0x3da7b67d3c1273a5U, 0x3e311b353ada2411U,
  0x3c10ca18bcea7bb0U, 0x3d945b40bc8bd485U, 0xbd8ed2513e32e167U, 0x3d98b96cbc1bb08dU,
  0xbc27337f3d4b67a1U, 0xbbb4ef193d90318dU, 0xbaf717debd054703U, 0x3d2ee6e0bdae6799U,
  0xbd041f133d76f404U, 0x3dab8191bdb27007U, 0xbd12cdf53e37e353U, 0x3d99aa753c899f37U,
  0x3dd92816bd738cf3U, 0xbd0efe9d3df24fb5U, 0x3db3d3ee3c9284d6U, 0x3be2c60abd4fe8f8U,
  0xbb9987083c177779U, 0x3e507f553bb149d3U, 0xbc608df43da4209cU, 0x3d6a62563c06454fU,
  0x3e14beb93d745491U, 0x3d8d1e4c3e05d491U, 0x3de07b4abd64ab53U, 0x3d43ce4d3d8eeb9eU,
  0xbd90950b3d8caa3dU, 0x3e30a8eabdcceec0U, 0x3d0630263dee3aa8U, 0x3df5d1283dcecff0U,
  0x3e03162ebd4e8b69U, 0x3d2f2c333d1e8851U, 0xbc1d71e23d05d532U, 0x3e207497ba1a19e0U,
  0x3d4c1586ba21aa72U, 0x3e76fa97bdfdc7a8U, 0xbc710b473e392510U, 0x3d06396a3c645af6U,
  0x3d82bf01bcdcc700U, 0xbb6a3eb43de2a1c4U, 0x3c699dc4bd074eb7U, 0x3e1aebd73d007e85U,
  0xbc4bac06bcb6de23U, 0x3e1fde12bc6e2510U, 0xbdbaaba93d6d9ee2U, 0x3dc487f8bd0e453fU,
  0x3dec90e7bc7769a4U, 0x3d65cf453ddbec82U, 0x3d90a6ccbca859c4U, 0x3d2761ebbda45c85U,
  0xbdf0f4e13d86b6d4U, 0x3da4bf64bdec8f16U, 0xbde474153df96d4aU, 0x3e3e7e0c3d246cdaU,
  0x3d38bef83c4f186eU, 0xbd8a80793d701922U, 0x3dcdb611bd1d76e7U, 0x3d0df84cbdf6053aU,
  0xbc8175103c65ec5eU, 0x3e58d1b4bd4832a3U, 0x3d3a44173e32c744U, 0x3d90de233db233e2U,
  0x3cc12a833d9be1edU, 0x3d54498d3e28d379U, 0x3dff6439bda1bff9U, 0x3e1ca9a4bdb49d79U,
  0xbd81fcef3d2e84bcU, 0x3e5cf080bccfc996U, 0x3d1e091d3e375676U, 0x3ddb78fe3d5b9a49U,
  0x3dbbd2363cb8891fU, 0xbd0e08ea3d8e1352U, 0xbc4d46c83ca7960bU, 0x3e3667efbc7f13d9U,
  0xbd82e5b23db41626U, 0x3e0bf324bdafbb22U, 0xbc37c5783e44697eU, 0xbcb43054bc455614U,
  0x3d86df60bcbb3e2bU, 0xbd0e8c5b3dd08975U, 0xbcb9e4c1bd492d99U, 0x3dd2d6ba3d8cfb09U,
  0xbe24e0dd3c8ce5acU, 0x3e7ce88c3d2cc2c3U, 0x3d5cfb1d3d9bcd41U, 0x3da1ec033ca167e0U,
  0x3c089ad6bd265f56U, 0x3c3f40293d7f4c74U, 0x3e0a1a06bde434b7U, 0x3d718afbbcd1e72eU,
  0x3ba159c43e088388U, 0x3e0456263c67e15bU, 0x3d5e79773e667111U, 0x3d833bf23d9a45e0U,
  0x3c8e57a53d372b0aU, 0xb92d927c3dac6693U, 0x3dfe9f6bbb9932dfU, 0x3e38028abc9ed8d5U,
  0xbd3750d23d749db2U, 0x3c4a0fedbdaff4c6U, 0xbc8edb3f3e576c49U, 0x3db10b483db14467U,
  0x3e33410e3daa5b08U, 0x3dcb2d0d3d406bc2U, 0xbcde25dabdf18dcbU, 0x3e1b2153bc59cf0bU,
  0xbde258903d61e494U, 0x3e2de9bbbd942eb2U, 0xbd6f0ea73dd53034U, 0xbc14118e3dafded3U,
  0xbd8ba0733d901c44U, 0x3cb5ec733e162ad1U, 0xbd365431bc14d7adU, 0x3d829b61bdc8f62aU,
  0xbdc95d013dac62f0U, 0x3e189314bbcab642U, 0xbdc853e13d1b8315U, 0x3d31e19e3c8e66efU,
  0x3c8c046dbccc0a86U, 0x3d1e08ab3e172cf9U, 0x3d9a7fd3bb8ddd81U, 0x3dc3e41b3d3d4af1U,
  0xbe0262363d81f2c5U, 0x3e17a67ebd9a61d8U, 0xbc152ec03d950a1cU, 0x3da24bc73d9e60daU,
  0xbc90b6d2bc2900cdU, 0xbcc169183dbf8bc5U, 0x3d9737433c4f7f8fU, 0x3e15fabcbdaaf346U,
  0xbdd464d93d62ea33U, 0x3e1cbb38bd6c7eebU, 0x3cda9f373d959d14U, 0x3ca516bb3d86082cU,
  0xbc84a66e3d3a6c96U, 0x3d898c473d643e17U, 0x3d9f25d0bdb7e320U, 0x3cd36fc73bf3698aU,
  0xbdb14dba3b4b240fU, 0x3dc4b02ebd81d834U, 0x3b651375bd582977U, 0xbb28021a3db74b23U,
  0x3d3c467bbce5c191U, 0x3d0b9ee93e266153U, 0x3d15f4d83d72bdc2U, 0x3d8017e8bd957110U,
  0xbd3d24cf3d273626U, 0x3d938ed2be11bf27U, 0xbd9029633d36ce1aU, 0x3d9fe0d73d32f0d6U,
  0x3d1780153cf861c5U, 0x3da59d3c3e17884cU, 0x3c0103f0bc9c6c3bU, 0x3e0ae16a3a308c13U,
  0xbd5e5ecaba822d0cU, 0x3e2b73dbbda49cdeU, 0xbd6f38f33d6cdcf6U, 0x3de39e533dc465ffU,
  0x3dbaf6c23c9661c3U, 0x3d1f97db3dcfe1feU, 0x3e0c50b6bd5f1cfaU, 0xbcd133bf3cb0745dU,
  0xbe0b89e83d761451U, 0x3e035310bda3b3a1U, 0x3d7508f83b8810ccU, 0x3d26109d3d021de0U,
  0xbd2ba4b63d17a3dcU, 0x3d359b1c3e08cae3U, 0x3e103734bd621b9bU, 0x3cd4522bbdc25e93U,
  0xbd0adaca3bb66a06U, 0x3dbb7a9cbdaaa8d4U, 0xbd6153adbbac757fU, 0x3c4fea613d9dbd2bU,
  0x3dfa90803d12d5c5U, 0x3ca3d92d3e05dba6U, 0x3c934c00be0188b8U, 0x3dd82d92bddec120U,
  0xbcbfc8c83cdde6ceU, 0x3dc7b1f2bd016264U, 0xbd9609e53df4b53fU, 0x3d4f41893e07327bU,
  0xbc117ff13da2f294U, 0x3c98174e3e047286U, 0x3ba199b6bdc951d6U, 0x3dd57d4a3d0b0b42U,
  0xbe341be83d4cfaa9U, 0x3d581536bd8b7136U, 0x3c921bd53d0fb3e7U, 0x3d1bcf193c8e1047U,
  0x3e2daf883dbb70ebU, 0x3de45e673e267a74U, 0x3c6bdcbbbd806396U, 0x3d4d4c48bc633240U,
  0xbe1ffbeb37e28fa8U, 0x3e2ee49cbbe6d946U, 0x3ba471783df2803aU, 0xbcaafddbbbc7c9beU,
  0x3d8f0c4bbd87dfb1U, 0x3cee62103d84efbcU, 0x3d2f05d8bd64b880U, 0x3e2a4f53bca4f53aU,
  0xbdb7fdd93d0794afU, 0x3d5db357bd386de6U, 0xbd7793033dd2072fU, 0xbd9dc18f3e06c222U,
  0x3bb1d948bdb9cb93U, 0x3cdd050f3ddf5bb0U, 0x3dadc215bdb9c9aeU, 0x3e01d9c6bd7367d6U,
  0xbdabe758bd6282f4U, 0x3c98b9243af89bb6U, 0x3cd9b76d3d0cc46bU, 0x3d8fef8cbc9866e7U,
  0x3d9d108bbd7ca27cU, 0x3a723a253d4db005U, 0x3d30fd3ebc3cfee2U, 0x3d6a125cbd53d589U,
  0xbc971cfbbd088011U, 0x3e0ace68bd820bd4U, 0xbd92a6e43db3e8efU, 0x3e1089ad3dadb4b9U,
  0x3df57d8f3d69eee8U, 0xbc183afa3e078cc5U, 0x3e414c1abd5519a4U, 0x3e16c7e3bd8c2d3aU,
  0xbdd44765bd37a67bU, 0x3dddcb8bbd6e1784U, 0xbd9dd2f83da32ab4U, 0x3cbc8af8bd2311fbU,
  0x3c97e87a38a5db34U, 0xbc1c55223e1eee77U, 0x3d8e1a4bbd49cf67U, 0x3e1d1ed3bde98e39U,
  0xbd3155db3d7cf75bU, 0x3e188c63bda5efc9U, 0xbdbfee813e008242U, 0xbd39ec8cbd692261U,
  0x3e0090d73c673745U, 0x3cfac61c3e1cadb6U, 0x3ccf5be7bdd94063U, 0x3d337ebabd140a18U,
  0x3c3d332d3dcbaa19U, 0x3e4b23c63cb8ca43U, 0xbd9ef13cbd3893e3U, 0x3e065951bd466cf4U,
  0x3d04ec193d5c0dcfU, 0x3daf4bdf3d761286U, 0x3dd237c03b20c3cdU, 0x3d804a90bd0006d9U,
  0xbd663d943d952ed5U, 0x3e624633bcdd9f8aU, 0xbd6692043e1666deU, 0x3e1d14e03dc270a7U,
  0x3dccb66d3d3a9375U, 0xbd062f703e013b54U, 0xbbb732c13c8da925U, 0x3e285b9dbdae4f15U,
  0xbd6197413dc3340aU, 0x3e408993b986bd7aU, 0x3d6496953d0909d8U, 0xbc4a689f3d450219U,
  0x3d8892023cbad61dU, 0xbaa546ee3d4c59c7U, 0x3dc4efe83ce56630U, 0x3def70afbd9eaec3U,
  0xbd5928ed3d0f0d3dU, 0x3e53bb1dbb863a61U, 0xbbf5245d3da72ab0U, 0xbcdfdfc43ba102c6U,
  0x3dea34cfbdb73c70U, 0xbcedcf813ccc7a06U, 0xbcca1ed0bd59e874U, 0x3d37f138bd255359U,
  0xbd6e20f63bdeabd3U, 0x3c0097b8bdbfd3f4U, 0xbca904043d1becacU, 0xbd0e68243d679565U,
  0x3c4653e3bdbf4313U, 0x3d83e3a23ceed5c2U, 0xbb23a9b03d9fb048U, 0x3dd6356e3c252f00U,
  0xbdf42acabd40f58bU, 0x3d651294bda08520U, 0xbc9a530b3e1f9637U, 0xbd51a7693d6aa222U,
  0x3ca33d95bd6fc240U, 0x3d89000a3d898811U, 0x3cb2562dbdb64d56U, 0x3d90abedbd2ceebaU,
  0xbd33ade43d3cadd8U, 0x3e0b7daabcf5fd5aU, 0xbd82c878bcc77e7cU, 0x3d8117ba3dcd3099U,
  0x3cb83af63dce3e4eU, 0x3cc29df53dfe21f6U, 0x3dd15f8abd7388e8U, 0x3ce3ea07bd7d3376U,
  0xbcd67030bd475026U, 0x3dffd056bda41f4bU, 0xbb75bc9d3e2a800fU, 0x3c86bd8a3b9ec744U,
  0x3d68e0713cf1c67eU, 0xbd8833293e39a1b0U, 0x3ca78f6cbcb6b2a8U, 0x3d7718843c653b5fU,
  0xbe03b0443d03dfddU, 0x3e2b659fbc869de7U, 0xbca206e0bd55cac4U, 0xbd4b53ad3db05a65U,
  0x3d01775b3d6e8d40U, 0x3cae30263d711313U, 0x3d80ffc0bd85e9eaU, 0x3d8fe76d3cc28f16U,
  0xbd71137cbcc5d62aU, 0x3dbf096bbb991b0cU, 0xbd87481abd170f75U, 0x3d73e7473d03d312U,
  0xbcb96895bd45efebU, 0x3d6e9fb03da18ff8U, 0x3d50b87cbc7302cfU, 0x3db69acebdc7825fU,
  0xbddebf5d3ddb837cU, 0x3df08f13bcf6106eU, 0x3cc82a4b3d628192U, 0x3d432449bca641a5U,
  0x3c69be663d3a4458U, 0x3d4655423df4c3aaU, 0x3cb8a199bd386458U, 0x3d3ceb8b3d83647cU,
  0xbd57bbe03cc97384U, 0xb912fb2abd09c0d2U, 0x3c1eda883e0f0f69U, 0x3df93984bda97c4cU,
  0x3dc968413da5ea34U, 0x3cb7f7c53b0cc63cU, 0xbc35080e3c56053bU, 0xbc0810b5bcec0ad0U,
  0xbd1c34fc3c6c7d1eU, 0x3d6d80d93d3d93deU, 0x3c2a66b7bdb334d0U, 0x3db42230bdd06731U,
  0xba701fc73d8372ffU, 0x3c866bb43d69989bU, 0x3c184f46bde1c84bU, 0xbc4950333d10b567U,
  0xbda2f873bd919101U, 0xbc8a8e953a68b405U, 0x3d11c363bc6c51b0U, 0x3d13b65dbd8653fbU,
  0x3cffbf763d70dac8U, 0xbda6d31ebd6c9ce6U, 0x3d9671263c043d56U, 0x3c6b3a42bce47f5cU,
  0x3d172884bd913bfdU, 0xbd4f11a0bd856f84U, 0x3c8d7a003dedfe3eU, 0x3dac59dabd81a441U,
  0x3dfdb3273d17a534U, 0xbd6e3ea43cdbabdbU, 0x3d6cdc8dbcebffebU, 0xbc9c7d5bbdc0195dU,
  0xbdaa51dbbbcb6501U, 0x3d8919b43d2e7479U, 0xbda932683d84c2b3U, 0x3e1625dabda68258U,
  0x3d90e2663d837d7fU, 0x3bebea0cbd143897U, 0xbdb0bbebbd9cb8e4U, 0xbca4a2fd3d31f96eU,
  0x3d0f4d91bbddf040U, 0x3d861abd3c584552U, 0xbd2f5b0f3de3f194U, 0x3dbb644ebe09fb9eU,
  0x3d99785ebba65e62U, 0xbd7ddf343d24a323U, 0x3e0e2c34bd661480U, 0xbdaf5555bb11a437U,
  0xbdced423bcbea672U, 0x3ca74390bc1cea8fU, 0x3d8222dd3e1af411U, 0x3e529b943c6cc758U,
  0x3dd560f43c5798a7U, 0x3d05d16e3d4c7af6U, 0x3e0bdcf33d082cd6U, 0x3cb4cd10bd45ebffU,
  0xbd9850cc3d275da9U, 0x3d5d3f173cf2d9a0U, 0x3d2dabb13e09f213U, 0x3e12ccd1bd131628U,
  0x3ddbc3213dd3e72dU, 0xbc978dd8bcd5965dU, 0x3dd9f6d03db7c575U, 0x3d00f81cbb62f38fU,
  0x3bf0c3e73d891085U, 0x3deba253bd1d3352U, 0x3d21d762bd78dca4U, 0x3d6bd4db3c0de470U,
  0x3d4136a13e020d29U, 0x3d787e2cbd107422U, 0x3df05288bd2292a8U, 0xbd8363203d4a081bU,
  0xbd61ad6e3cddc881U, 0x3dd8c28e3d389236U, 0x3d06fdf93d415e9eU, 0x3e2ee05fbdd3b034U,
  0x3d720e303c1f3a72U, 0xbd3e58bfbcd5f78fU, 0x3e0655a83c84fe5fU, 0x3cee09553d9184ebU,
  0x3ca8c4443cf1b8d1U, 0x3d8aba533d0407a1U, 0xbd0483973c1ce29fU, 0x3dadb72ebdec006aU,
  0x3c4c0a063e1e0cf3U, 0x3c482de83b39ab17U, 0x3dbfe3fa3cd094a6U, 0x3acb3115bd3b43dbU,
  0xbd869f2ebd77249bU, 0x3e2c225a3d6ed66fU, 0x3dd31f723d94a82bU, 0x3e44d552bde6e56fU,
  0x3cae2e3d3ceb6044U, 0xbd08c1383db6d7b6U, 0x3c1b00383ca6fc55U, 0x3a9d470cbd98926dU,
  0xbd2e0ffb3da010f8U, 0x3d6701713d16497fU, 0xbc6bd83e3d875c8cU, 0x3d2de7c3bd8f68bfU,
  0x3dcf9d9a3d314836U, 0xbd90f2553d46e7afU, 0x3e0555483d5b0cf8U, 0xbbd46e973cacb667U,
  0xbbd7648f3d86507aU, 0x3de4631f3df48345U, 0xbc06562c3dadb348U, 0x3cc5cf12bd5152baU,
  0x3d2484a03bdd2750U, 0x3b578708bcf62519U, 0x3d2c2112bd0eb508U, 0x3d23d4afbd401bfcU,
  0xbbce35683ca2e41eU, 0x3e4fe4fc3dfd05b7U, 0x3b7470cf3e28b967U, 0xbc3de605bdefe2b5U,
  0xbbecf9c53d32add4U, 0xbd6f57313d98eca1U, 0x3dfd3e35bd2d3485U, 0xbd517ab53d7b0c68U,
  0xbd894ca53d0c9e99U, 0xbd08039e3bc8e2e0U, 0x3d602b73bd94aa8dU, 0x3dcdb3eebcd827d8U,
  0x3d6a84383dbf0170U, 0x3c66ec583bdf88ecU, 0x3e1f82183b406dd4U, 0x3c9fb85e3cc94715U,
  0xbc8685d6bd5212f4U, 0x3e0ab79c3d7112cbU, 0xbd79f3ee3e15d7f2U, 0x3db8e534bd273bbfU,
  0x3d7bd9b03ce1fb46U, 0xbd83513a3db53895U, 0x3ba07b513d3f3dfcU, 0x3d8388143d9690aaU,
  0xbd6ef54cb902a816U, 0x3dc863eebc3f428aU, 0xbc8850473ce572f3U, 0xbcdb94e4bd81b88fU,
  0x3d70f85e3d0246beU, 0x3cb6acbe3ca74103U, 0x3df94afbbd32590eU, 0x3d08eea7bcdff2dbU,
  0xbd03396d3d205b2aU, 0x3e0df6263cdff97eU, 0xbd3a77513dd2a753U, 0x3de17984bd98a800U,
  0xbcf613763d03dddeU, 0x3cd5e99a3cd76875U, 0x3cf2bbc3bbe9c52aU, 0xbc8942493cf76f41U,
  0xbd7d4220bd4048d6U, 0x3d36e741bd152e8eU, 0xbce193023e3834a1U, 0x3dc03fe3bd9393a8U,
  0x3e17ce023dae74ffU, 0x3a749ee2bcb4841dU, 0x3dc88c71bd2fcd24U, 0x3d9874ea3d0bbb89U,
  0x3d8093343cf8242cU, 0x3d404cbf3d0e2925U, 0xbb8d8e483e08b19fU, 0x3e168780bd5db016U,
  0x3de2845d3e09faf8U, 0x3d59f45d3db1d759U, 0x3e36405cbcd8f054U, 0x3d9796e9bd489dfaU,
  0xbdc43b023d6fc01fU, 0xbc82efedbd7469d8U, 0xbd8f5a953cd7476fU, 0x3e3092d83b360747U,
  0x3dde875d3d23ba93U, 0x3d70b6f8bd2538e1U, 0x3d088687bcefddf6U, 0x3c7840dd3d778f9cU,
  0xbce6b4893c584cd8U, 0x3dbf5725bd12c580U, 0xbca943913dd9d249U, 0x3ddfbd2fbe1bb07dU,
  0x3d3edfb43cd5d33aU, 0x3d0acbb2bd36de05U, 0x3d921c24bc45759eU, 0x3d8150e0bca0fb4aU,
  0xbda6c2203d45bb5eU, 0x3db58fbf3d18a582U, 0xbd28e6163d23aca8U, 0x3e5a9f953c333e6aU,
  0x3e0bf57f3dcf11edU, 0x3d479114bd2abf2bU, 0x3d6079efbd2041ecU, 0xbcaacbd73d1e872fU,
  0x3cddcea93d01faeeU, 0x3d5c9aa33c66ea3bU, 0xbcdfb3333e1950d6U, 0x3d899a20be082bf7U,
  0x3dde728b3d19ffd8U, 0xbda0861a3d98124eU, 0x3c3b2db2bd6637fbU, 0x3c9578123d3d3251U,
  0xbd9bc2503d718ec9U, 0x3e322582bd19ff62U, 0x3d3a62363da1dc7aU, 0x3df94fe6bce0e51dU,
  0x3dc37f9b3e0f1163U, 0x3d2c42443d8bf8cdU, 0x3d8332d9bd98d98bU, 0xbd74e44ebd13832fU,
  0xbdc852bebcb7b7c6U, 0x3cde8d9a3d76d931U, 0xbc8de89cbd49ac4bU, 0x3e171cb9bdb1093bU,
  0x3dcdfc55bbe2973cU, 0xbce14135bbb06b6bU, 0x3dbb26a5bcbee0e8U, 0xbd275a353cdb17e7U,
  0xbd374bba3d23bbcaU, 0x3e31760abce2a1f2U, 0x3d8090bc3d9dda23U, 0x3e146e23bdfd0859U,
  0x3ce7ecee3e157e53U, 0xbd9f8533bcdd4296U, 0x3e040763bce9990fU, 0x3d9614763cf0fd95U,
  0x3d61ea0a3cffa432U, 0xbca796773d8af765U, 0x3c90eba93d9796eeU, 0x3d72fdf0bd8aa369U,
  0x3db5d6083e18c234U, 0x3db8170d3daba571U, 0xbc11be933c0648bdU, 0x3c85ac103d93acdaU,
  0xbdbce72cbd27ec0dU, 0x3d681c163b4f35dfU, 0x3ca03ae43d90166fU, 0x3dd7c249bd9f4a54U,
  0xbc834f5c3dd8c0b0U, 0xb9866065bcaf673bU, 0xbbe72dc53dbb393cU, 0xbdd802dfbda4ca03U,
  0xbe13c986bd6f2d1eU, 0x3e1e87c23daedf53U, 0x3db8757b3cedd874U, 0x3e108a6dbe15b67cU,
  0x3dd4b4f33e00ce76U, 0xbd6fb9f33c48d7b5U, 0x3d33accabc5aa0feU, 0xbc0a921d3dbc2fe5U,
  0xbd85a375bb76f443U, 0x3d310f40bd08dcb4U, 0x3d9724603e595064U, 0x3de913a3bd4c6360U,
  0x3e44f48e3dabbb6eU, 0xbd2962053d5ab943U, 0x3db16569bca5bf6aU, 0xbb55d5f8bd0d9cddU,
  0xbd24d70cba8cfac7U, 0x3d67e209bda2f6e3U, 0x3d658ee5bcd5d87bU, 0xbd9de2a0bb8bce40U,
  0x3c94a45bbda47d55U, 0xbd5a98ee3d96c4abU, 0xbcea3b823cfce418U, 0xbd459417bacd4af6U,
  0x3d47d3153d152ca7U, 0xbda5ff3fbcb9b9e7U, 0xbb7d73e4bd89601bU, 0xbd87fcecbd538af7U,
  0x3d27295c3d139bcfU, 0x3d5110c5bd9220c8U, 0xbc903e02bd91b167U, 0x3cf42221bd5cb35bU,
  0xbd125d68bd90944cU, 0xbd5789b53c71a192U, 0xbce03dc0bc77e2eeU, 0x3c6e6d1d3d0bd2baU,
  0x3d6e5f81bc33af95U, 0x3c4f4f6ebd514db6U, 0xbb0fa72c3d162021U, 0xbd681a0e39bde69cU,
  0x3d4f9a2f3c1597c3U, 0xbd6b8f1e3cd6e142U, 0x3d8c14e5bbd447efU, 0x3d47be6ebbbc7c98U,
  0xbd095fa9bd3b6e4dU, 0x3d9aa58abd847a5fU, 0xbce8efe8bd4b2853U, 0x3d57dbbbbce185baU,
  0x3d4512433c2d3467U, 0x3cd6ed51bc0123cdU, 0x3d841abb3bf4f0beU, 0x3c0c13f9bb3c4306U,
  0x3d24b9d33b56a2c8U, 0x3cde843fbcc28414U, 0x3ce163b4bb814db6U, 0xbd5b5e2ebd997e51U,
  0x3cfa12183d812c57U, 0x3b4032ddbd10e7a9U, 0xbda16b8a3db942f7U, 0xba8d397f3b39db07U,
  0x3d1bc2ccbdb5c32aU, 0xbd6b1ef43cf32aa1U, 0x3d8fcf29bd91fc71U, 0xbd69529bbc6369ecU,
  0x3d7bf9ac3cb53420U, 0xbd286ab63c02d818U, 0x3d8512ecbd7e5a43U, 0xbc8d973dbd2bf06dU,
  0xbc656b4f3d879eb4U, 0xbda0158cbd602df3U, 0x3d86b4823d2103baU, 0xbd9926263d8a8092U,
  0xbd25c3273d485770U, 0xbd7387ecbd7a8bd2U, 0x3d22b5f53ce28ee9U, 0x3ca744cabda0cc20U,
  0x3da2827dbd5b7c88U, 0xbd585f68bb9700a6U, 0x3d859cae3beee99dU, 0x3d4dc51f3ceb2644U,
  0xbd4cf426bba78a2dU, 0xbd6f82073ba09558U, 0xbcaeea54bd785cd4U, 0xbce93976bd7d4d12U,
  0x3ce1df4abd3b4a55U, 0xbda19c8ebd965acdU, 0x3d96bc313becee9fU, 0x3c27c259bd4c670aU,
  0xbd39d3e9bc13fcfeU, 0x3d6864013d485597U, 0xbd3ced593d06d6a1U, 0xbc903c15bcfddb98U,
  0xbd4822bfbb3e9793U, 0x3d39f8403c47b425U, 0xbd11c5cabc73f857U, 0xbd4e549cbc07c41fU,
  0x3d6523243d5c0c53U, 0x3d131d4bbd39b9a1U, 0xbd746a7f3d00b6b2U, 0x3cbaa522bd990908U,
  0xbd00badabd9d5a2fU, 0xbd4e43c83ca0fdaeU, 0xbc468442bd52e3a4U, 0xbd66e052bc19676fU,
  0xbd8571a13d67e2a7U, 0x3d825e2ebda0d860U, 0xbd2466dcbd451100U, 0x3c4dec76bd8bbed1U,
  0xba9d1a413d3bd17aU, 0xbd20552ebd8cd402U, 0xbce75e8bbd0bee27U, 0x3d668a0fbd443b3fU,
  0xbdaae91bbd079eddU, 0xbc92520fbd1b65a7U, 0xbd145ef3bcccd338U, 0xbbed5a44bcc42674U,
  0x3c8846203c4240c6U, 0xbd027ed83d740939U, 0x3d8b5fd23d6d6c90U, 0x3aa3d1073d05ec15U,
  0xbd908570bc60c149U, 0xbcf58b08bd0010e8U, 0x3cfa1fcd3d82f339U, 0xbd901a0cbd83a7b0U,
  0xbc39f8853d1726ebU, 0xbd9c656e3d0db793U, 0xbd05c179bcfad632U, 0xba8cf7843cf48dbdU,
  0x3d06d4b83ca19aecU, 0x3d464ba6bcd39569U, 0x3d15235dbccf8254U, 0xbd7460a93cd4eeceU,
  0x3d92d06f3c34ee4aU, 0xbca9e1b8bce0e8daU, 0xbd982dc13cd651ccU, 0xbd994f93bd06c09cU,
  0xbc570739bda44562U, 0xbc55a0333c01fa85U, 0x3d35567fbd1a9668U, 0x3d385c4d3d4a3d39U,
  0x3d83b0fcbc08c64cU, 0xbb3e5c0d3ccfaa0dU, 0x3d5bf99cbd5e216cU, 0x3d2c27783cb760adU,
  0x3c5bdbe1bd72fc6bU, 0xbd7a6f76bd2ddac4U, 0x3cf5333b3d9e2757U, 0xbd7fb8213d746183U,
  0x3d99f05f3d15f478U, 0xbd89d1603c3094ddU, 0xbc797a823d8d7d79U, 0xbd9863a5bc89f49dU,
  0xbd6dd43b3cfb27e4U, 0xbd7cf62e3c706f63U, 0x3d588ae73d56cd1fU, 0x3cc9287d3cf6a484U,
  0x3ca60e553d85a2c0U, 0xbd3bea52bd3e5f3bU, 0xbd44f16c3d87256cU, 0xbd50e9f23d2fccc9U,
  0x3ca2b902bd251905U, 0xbd7c3d6ebdafb445U, 0x3cd7154fbc478440U, 0x3ce6ea98bd95746aU,
  0xbd13710d3c070994U, 0x3b7cd5f63d31995cU, 0x3c173ae2bd9ca395U, 0x3d107a1abcd85876U,
  0x3d543857bd6d4aedU, 0xbd9a1e5bbd85e7d0U, 0xbdab16ab3cd9c4f0U, 0x3d25413fbcf852d9U,
  0xbd2fc84ebc9c1d2fU, 0x3cf40ca63d5c9175U, 0xbd9d4e7dbd33d086U, 0xbd09491dbd823b15U,
  0xbc8b019ebd39f731U, 0xbca00ad53c122777U, 0xbcb0f6f6bd3659ebU, 0xbcbc1d043d274f40U,
  0x3d721981bc4df664U, 0xbda150bfbcc235b5U, 0xbd515df9bd52e285U, 0xbd903ad13d7f48f2U,
  0xbd0fe09fbd8fd0f4U, 0x3c27129fbd8d5921U, 0x3cdc19ae3c41c82dU, 0xbd4d90973d8c84bbU,
  0x3d4e7d45bd969c13U, 0x3cb91d6c3c9d29d9U, 0x3d8b50653c5eaff4U, 0x3ce9b9f6bc8cea9cU,
  0xbd97c279bd8b8802U, 0x3d9cd301bd0468edU, 0x3d5f7d973d0852d7U, 0x3d0d93303d6b9390U,
  0xbd983fb63c76af8fU, 0xbc49ecb9bcb98c12U, 0xb8bed3703cee1ed7U, 0xbc1ec5b3bd90381aU,
  0xbce015193cdb06c7U, 0xbd80f456bda5671aU, 0xbcc313adbc0e4d26U, 0x3b363c70bbf66401U,
  0x3c6a78133cc75133U, 0x3d35a3f5bd39a372U, 0xbd8ce9a43c7571feU, 0x3d10cd83bd30c297U,
  0x3d2b71b4bd27c16aU, 0x3b236354baabfa98U, 0x3c9b6fe83d9058b1U, 0xbcc5b55c3b627cffU,
  0x3cf23c52bc644fbcU, 0x3cc8bea1bd0dd4c9U, 0x3d34ade13d839d40U, 0x3d9da16ebd686451U,
  0x3d233bc4bd2aa86cU, 0xbd915af0bd3fb1dcU, 0x3c4f543dbd5b7887U, 0x3d6cf7683d01c5b1U,
  0x3d2ca6cbbc2a6c11U, 0xbc409f153b980f56U, 0xbacee57d3d5e117aU, 0xbd8bdba5bd194d38U,
  0x3d32fa543d65c70fU, 0xbca2dd2cbd4b9b77U, 0x3caf8028bcf2145dU, 0x3c9c170cbd9b394bU,
  0xbd0243e6bd7d3d2dU, 0xbd6c6e63bc82a3a8U, 0x3c2a74acbd9cbb54U, 0x3d592807bd2cf08dU,
  0xbcd3524ebd25c2f9U, 0x3d78cbf83d6f07ffU, 0xbd7b7c963db0b964U, 0xbd440764bd197acaU,
  0xbc00f1383cb566daU, 0xbd3da4243d551d52U, 0xbda3cfdcbd10f724U, 0x3d0f0e0b3d6251d5U,
  0xbcfe656ebda05201U, 0x3cbdb852bcf93478U, 0x3d84d7f63c0a22f0U, 0xbca3cd3fbdaab3b5U,
  0xbd854c18bd4a64f7U, 0x3d37caa9bd0553f9U, 0x3d90e018bd803ca8U, 0x3ba2dcd33d29709dU,
  0xbd87b3e3bc7f396dU, 0x3cb46edf3cb56dd5U, 0x3cd1e7373d0e234bU, 0xbd2f20953d220958U,
  0xbc90a69a3d9ba754U, 0x3d423a473d3c2284U, 0xbd40f936bd68a3c6U, 0x3cb5801e3d44d471U,
  0x3d1c16b33d6fab3aU, 0xbc010c173d5aa925U, 0xbd5a62d23cf24ae0U, 0x3d90b445bd19534dU,
  0xbce02c3a3d34a7a8U, 0x3c5a763c3cc55633U, 0xbd4cb0a9bcadca58U, 0x3d06515fbc9dd2bdU,
  0x3cdf3274bd7c0aabU, 0x3cd8b8663c57f095U, 0xbc8059943d78c385U, 0x3d891c7b3d5d7e66U,
  0x3c4210c0bbb0bb05U, 0x3cfc77753d527fd9U, 0x3d3b1fc43abd2a12U, 0x3d8c93073d37dffdU,
  0xbdab7429bcb6999bU, 0xbcd3e0523c736003U, 0xbc6341f3bd3afe07U, 0x3d13c918bd104421U,
  0xbd1d7d2fbb05dfe5U, 0x3c8d55443d58ab21U, 0xbc9147cf3c8a4b9eU, 0xbd2406c33d3b1032U,
  0x3c8a8c98bd1c862bU, 0x3d963a2f3d163999U, 0xbd4f35313d9ad2c5U, 0x3aa404f73d52f8dfU,
  0xbd61ffa9bd9a7131U, 0xbcdcb2cc3d78053fU, 0x3d655b1b3d93988fU, 0xbd6e4e19bc7c4680U,
  0x3d9464003d1c712aU, 0x3bb2896d3d719da7U, 0x3d2767733d150a4aU, 0x3d959c20bd619ae7U,
  0xbc76b56e3d88e846U, 0x3d24e4003d8d063cU, 0x3c877722bd8081c2U, 0xbd1f6247bd8b7991U,
  0x3d7cdc5abcd7eda6U, 0xbb86a5b53c65ba40U, 0x3d48fa083ce3d9ecU, 0xbd9daa8b3d4470bcU,
  0xbbc0b2acbd051a79U, 0xbda5539abd7f6d82U, 0xbd865fa33d88601aU, 0x3a7e6a15bc9f81c6U,
  0x3d85a28e3cfafc05U, 0x3d6c9e4d3c3560c7U, 0x3c9d161d3d218f56U, 0x3cc026febd83ad00U,
  0x3d8930c7bcc6ace1U, 0x3d85dcf9bc7dc447U, 0x3c8474b2bcd1559fU, 0xbd283b6ebd11cb5fU,
  0x3c51dd6e3d2c4e4bU, 0x3d2dfbf63d0006d6U, 0xbb032c423d8ef37eU, 0xbd9b86f4bda9df4bU,
  0x3d9982cb3cda2414U, 0x3c6f61ccbd40757fU, 0xbbd606a93d66bdadU, 0xbd2be74d3d5d463fU,
  0xbb2e58553d867146U, 0xbc02dcd4bc7ef1a3U, 0x3d843931bd0f54e6U, 0xbd828e113d7a6399U,
  0xbd859eb1bd73ba0dU, 0x3d6ed4183c6a70feU, 0x3cf397f83d750bdaU, 0xbd6db040bd9fcffbU,
  0x3bb06e293c2edf5aU, 0x3cbe8b0cbda58885U, 0x3bd447363cdfc16aU, 0xbd045eb03aaa9e92U,
  0x37c54afc3d1d9f3bU, 0xbd1215fbbd9cbedeU, 0xbca6bf8d3ca05265U, 0xbd825c223d0ac42dU,
  0x3d81830abcb05eeeU, 0xbd4b625cbd1a436aU, 0x3cec15b83c26c696U, 0x3c390988bd82301eU,
  0x3ca7c6debd859d9dU, 0xbd1b5983baad6807U, 0x3d5199a43ccfdfbdU, 0xbcaeb820bc50f5cbU,
  0x3d8426e8bd974f95U, 0xbd49f7033d8c0d6cU, 0x3b370f6b3d851140U, 0xbd6264cc3ca6dd3fU,
  0xbd3aacc93c662a81U, 0x3cdd82f83d73a505U, 0xbd9174233c8a3fe9U, 0xbccef0593c854517U,
  0x3ce9ad4a3caa127eU, 0xbd61c59a3b2e3898U, 0x3d612c113d4c453fU, 0xbd67e3cebd8be45dU,
  0xbc17f7c73d171681U, 0xbd85d6693c9d1a0dU, 0x3c2bde46bd78a9a9U, 0x3d8a8cefbc64d0acU,
  0xbb87fb423d86a2b3U, 0xbc430ac4bda3bc9bU, 0xbd4142273d252cd5U, 0x3d88ddd9bd4a20acU,
  0x3d797ede3d19941fU, 0x3cfac9a7bcb4c2c3U, 0xbd6ec9cd3d508892U, 0xbd56c1dabd2fb200U,
  0x3d3d07d9bd7432e2U, 0x3cd79a7d3d85f6a6U, 0x3d8920143d03f845U, 0x3d81d234bd9014b1U,
  0x3d6ed396bc4d992aU, 0xbd9d21e8bd563092U, 0x3d61376d3d3895e7U, 0x3bb05fba3cd5bef5U,
  0xbcb74846bd74c0f9U, 0x39e1227a3d68eb1aU, 0xbce2207fbd404180U, 0xbc455e79bda38b10U,
  0x3d2e62e03ad9dd14U, 0x3d3620903d66e744U, 0x3d47e6d3bd9a5f47U, 0x3d3f6238bccb4366U,
  0xbd810faa3b96fe00U, 0xbb4a8cb53d82bcadU, 0xbcd794f43d370740U, 0x3cd3670c3c80dc1bU,
  0xbd1dbbcebaf7bb10U, 0xbcbcdd9c3d8da0f9U, 0xbc9b3a0b3d84c3f3U, 0xbd9232fb3c95780fU,
  0x3da47eccbc0c7cfeU, 0xbca87681bd1a241dU, 0xbd5fe6bb3cab9367U, 0xbd5337f3bc62077eU,
  0xbcb4ed293d06200dU, 0x3d413807bd2056faU, 0x36fea7bebd386ec1U, 0x3d5d223ebd882368U,
  0xbda7228bbd34b7b9U, 0x3c11b700bd718d0cU, 0x3d1e455fbb836873U, 0x3d90e151bc9b22bdU,
  0xbcf0813dbd861011U, 0xbc9ec81fbd7bd46cU, 0xbd5e5aab3d76866bU, 0x3b7accc1bce430ddU,
  0xbccd84d23d626f9eU, 0x3cb0a28ebcfa1397U, 0xbd67ba47bd65abc1U, 0xbd848e803d6ee13dU,
  0x3d7add263d8dcc41U, 0xbc909e7d3d4461e6U, 0xbcfe43d9bd87edc9U, 0xbd495de5bc9e43dbU,
  0xbd7463d7bd154ed1U, 0xbd9fbcdfbd130b65U, 0x3b68ab10bd0b2799U, 0x3d760df03cf2847fU,
  0xbb0a7ae1bd078177U, 0x3d8011b1bb391f8bU, 0xbc875b153d8c1932U, 0x3d967e30bd68ab38U,
  0xbba7538a3d609dcbU, 0xbd67242bbd0c85b3U, 0xbd8bc37abc6112b6U, 0x3d3b0ee53d754693U,
  0xbd2bfada3ce2fc60U, 0x3ccb900d3c965d0aU, 0x3d945a00bd82f524U, 0x3d82c4243d882ecbU,
  0xbda89985bacdee3cU, 0xbd89bd403d7c635dU, 0xbdadffcd3ccaaae5U, 0xbd315c63bd2da2afU,
  0x3d3425993c909457U, 0xbd92ce30bc7c58abU, 0xbc0437fabd5d8845U, 0xbd8becd93d4735d5U,
  0x3ca4fc4e3d1a89eeU, 0x3d5df282bb03cdf0U, 0xbd2e1c6ebd429e94U, 0xbc9d3b5b3d4a1d36U,
  0xbcef015b3d8d5bfdU, 0xbc87fa033c4106e8U, 0x3d4838f63d039705U, 0xbd3f124abd334f07U,
  0xbcf71bfebd7454afU, 0xbc2d0638bc058642U, 0xbd63862ebd10ada5U, 0x3ca6fdf4bc70492aU,
  0xbb7ef75b3cc653beU, 0x3d0153f4bcf8d04bU, 0x3ce136c13ca8742bU, 0x3d65d06a3d513adfU,
  0x3d60c78bbd663de6U, 0xbcd09dbdbd29d564U, 0x3d04d27f3c873962U, 0x3d533358bce26bd0U,
  0xbb52eb25bd1edbb3U, 0x3cb37826bcae365dU, 0x3ca5313d3d58a100U, 0xbc7c5c753d12d928U,
  0x3d1113c53d6c3710U, 0xbc479fb6bd0fab90U, 0x3d60359cbc9a4bf4U, 0xbd3de90d3cdc9fd9U,
  0xbcc791363cf35fd6U, 0xba92cf9abce4a73cU, 0xbd6f36eabd871555U, 0x3d6a468f3d4a979cU,
  0x3d892c273d0d8ae3U, 0xbd1c8bd1bda6339eU, 0xbd30d6343d2c5c19U, 0xbc86a7483d00e93bU,
  0xbd220e56bc8b984dU, 0x3d838ac53d70c988U, 0xba5b53a2bd9f01e6U, 0xbae802ff3d8b7bc3U,
  0xbc1acc5e3d46f0c8U, 0xbda757463c02228eU, 0xbd941ebfbd53ed71U, 0x3cf48938bc8114e8U,
  0x3c3c4b353d53c396U, 0xbccadba43cdc02b8U, 0x3cd65e69bd2ad811U, 0x3d1015a1bd2dacd1U,
  0x3d55c66a3d63f62dU, 0x3d3c20563d4aa2b7U, 0xbc3ee5583d9bb0fcU, 0xbc46e77dbd9fc54cU,
  0xbd1f376fbd88ce26U, 0x3b4237923ccac899U, 0x3c24f3f5bd2af62eU, 0xbc7f6530bca17b29U,
  0x3d2bb2cdbd9bb714U, 0x3d0a8c66bb8e13cbU, 0x3bf85dd3bd0299bdU, 0xbd2f81143d40ef44U,
  0xbd3bd1f1bca378d3U, 0xbd591bb83d574e65U, 0xbd5cf99fbd180a9eU, 0xbd0187fc3c3c8859U,
  0xbd08a508bd39023eU, 0xbd2e58e53c94ce73U, 0x3c9d14be3e758004U, 0x3e3e2ca7bde1035aU,
  0x3e0dc5ea3d88958aU, 0xbb80f73d3dc65d24U, 0x3d8db729bbb0bde6U, 0xbae720ca3c30be83U,
  0x3bfbeb9abd815800U, 0xbd89a5623d411621U, 0xbbb7bf563dba8d38U, 0x3d9bba31bd193d54U,
  0x3d172658bcfbbc98U, 0xbda774803cace9f8U, 0xbc056ca23c798b82U, 0x3b5f6e62bc48f2d7U,
  0xbc8aff793cc63511U, 0x3d164b813aa7fb33U, 0xbe0ac2703c9b90d4U, 0x3d1d9236bcc56f69U,
  0xbd4968ed3d6f659aU, 0xbcc271e0bc8e5afdU, 0x3de3d54c3cc86a3eU, 0xbc80d8f9bba0cebaU,
  0xbd244f21bd95015dU, 0x3dcdb17abc22ff4cU, 0xbdd23dfd3e36d78eU, 0x3d8dc9b5be0146e7U,
  0x3c62d3563ce1db7dU, 0xbd20c2bfbd11cd2fU, 0x3c7fd059bd997317U, 0x3da3a0923c2931caU,
  0xbce2ea21bd340202U, 0x3df9c5843dc922fcU, 0x3c3442493d4e66d1U, 0x3e140319bce531ddU,
  0x3d2242c03d974a2dU, 0xbd0ebe763d804618U, 0x3dd80511bd10a557U, 0xbd2425e8bcdedf7bU,
  0xbcf8842dbd1b42a4U, 0xbc0fb5153d0e0e5dU, 0xbd9303023cc80f17U, 0x3db4fb06bd96cb3bU,
  0x3de1dc8ebcf7754bU, 0xbdd1ebff3d299d50U, 0x3e05e032bd0a4e21U, 0x3d3f6f54bd2771ddU,
  0x3d9bca4fbb491555U, 0x3d4970db3d95312eU, 0x3a713fcc3e20298eU, 0x3dc39955bda69967U,
  0x3dd0d32bbc97e8dfU, 0xbcafc0503db8658fU, 0x3dd7ec6bbcb4da6eU, 0x3d61d0d43d442a80U,
  0xbd4b6c933d8eec7dU, 0xbc5acb6cbc54e3d8U, 0xbd7d64733df274dbU, 0x3e29bc8dbd2b9e5fU,
  0x3dcbadbf3d63f3b1U, 0xbdbfc52abd6541b4U, 0x3de9e1cebcfad991U, 0xbd60cd2bbd1b0836U,
  0xbd92b1013c060e70U, 0x3c04c522bb490a42U, 0xbcd643eb3d548b3eU, 0x3e518d1abdbfb64eU,
  0x3df35a51bd0061e3U, 0xbd33b1213d98e8efU, 0x3da4d48fbc82989cU, 0x3d75edbabdafd7d7U,
  0xbc1648c33d4d4e23U, 0x3ad1edb8bd7c03c6U, 0xbc78e46fbd75f4b2U, 0x3e1cdec1bdf14202U,
  0x3dcda4d83dd86890U, 0xbde986903d888e4cU, 0x3cb5d3fa3c8534c8U, 0xbd0fc9c5bde2198aU,
  0x3c44c6a63b6469e4U, 0x3c97527f3c312d03U, 0xbd9956d93e3bf8fdU, 0x3e35d7bbbe15988cU,
  0x3b9be3833d5e8961U, 0xbd742f0fbd0d8aacU, 0x3de17fdcbd895919U, 0x3dcc23a93cee233eU,
  0xbd22f4e4bdac383fU, 0xbd1acc2e3d576622U, 0xbd5fdccb3d6ba6d3U, 0x3db009a2bccb47e6U,
  0x3e0cd74cbba62f3dU, 0xbc4281833d9837beU, 0x3e02e1533ca8edf8U, 0x3d968c86bdbd2f5bU,
  0xbb23918c3d8d740cU, 0x3d8e97993cd2bf5eU, 0xbd6bf6f83d5a4213U, 0x3df34fcfbdbbe07eU,
  0x3e0ae5e53da2ed89U, 0xbd5c98c0bd4c0c59U, 0x3b8e68b93cce66d9U, 0x3d320278bbc5f45bU,
  0x3da23d033d82613fU, 0xbcf1e8f5bd508242U, 0xbd9df3673e2b02f9U, 0x3dd96dc9bd4a1aa6U,
  0x3bfea69c3d0cc9f2U, 0xbc82d8a5bca06ec7U, 0x3d9469b3bda98c01U, 0x3db510223d7edcc4U,
  0xbd36c738bcd8440cU, 0x3d15bfd4bca306aaU, 0xba53cfb33dd8723bU, 0x3df3dd0cbcd2db96U,
  0x3dcfc30f3d4e038fU, 0xbd40f48dbcfca2c0U, 0x3d28a13cbdba847bU, 0xbc433638bc268b22U,
  0x3d5b5e773cd64d9bU, 0x3c564295bd0886b3U, 0x39e9b86d3da3fd1bU, 0x3e1a767dbe0b30c3U,
  0x3cba90d63d91f640U, 0xbe0222743d162f92U, 0x3e450e8abd8a2efcU, 0xbc8453b1bd1534d0U,
  0x3c81a605bc12b7e3U, 0x3d61fbf4bd240418U, 0xbe0be2653e04a0f7U, 0x3e4e20bebd8afdd5U,
  0x3d9ba9ffbbf67fc2U, 0xbddee6ec3daf3eb5U, 0x3e13a536bd4f3890U, 0x3ca65e92bd946f8aU,
  0x3d983d49bc9ac538U, 0x3d0267293bd2e471U, 0xbc3424253d5f285aU, 0x3d0d10c3bd3f895cU,
  0x3d7721f13d92b6b5U, 0x3a91422cbd18428aU, 0x3defe94fbdab3c65U, 0x3d434f75bd7add2dU,
  0x3d232fb8bd63ef28U, 0x3c74efbdbb65e0edU, 0xbdbdb5283e213646U, 0x3e3d3e74bcd16a4bU,
  0x3dc0bd363dd690adU, 0xbdacb9ffbc168017U, 0x3da5b947bd9eaa17U, 0x3c923a73bd124636U,
  0x3d6f69453d24737aU, 0x3de37e8abd2adfd1U, 0xbd32a6be3dc40ac2U, 0x3e70a495bc86cd73U,
  0x3cb950063dea2d58U, 0xbd7292373d25e925U, 0x3d0aac01bc1cfa7cU, 0x3d1565bcbcbcb8feU,
  0x3cfa6a46bda440f7U, 0x3da5b12cbc2256d9U, 0xbdee54e13e4a234bU, 0x3dd9f113bda52adfU,
  0x3d8193cd3e042fd1U, 0xbd27e7bebd7a0ddeU, 0x3ad0c88c3c6d5991U, 0x3d539811bda8aa2fU,
  0x3d438662bdac63c0U, 0x3d1e177fbd90d90aU, 0xbe2d4a063e155732U, 0x3e04d3c5be1712a2U,
  0x3cc8c57b3ddb4c6eU, 0xbd960e5d3da680c1U, 0x3d942e10be0bb317U, 0xbc0be0a53d1e4946U,
  0xbcb4258bbd844f1bU, 0xbd4f99c73d831f52U, 0xbdebd8623ca55291U, 0x3e2e9428bdcc8f81U,
  0x3df3d1f63d5aa4e0U, 0xbd29c4b93c9f71e7U, 0x3d8e3827bda012adU, 0x3ddcb8aabc86b3ccU,
  0xbbbeca1f3d030fb3U, 0x3c5721a73c9c8e8dU, 0xbd5d3f893e64c797U, 0x3e0b2b97be0aeb99U,
  0xbc38ce213c57e44eU, 0xbdda2196bc4a4031U, 0x3e2424b6bc260051U, 0x3ce74e70bdc278daU,
  0x3a34d0223cccea51U, 0x3cdb3af73d21d928U, 0xbca852613e17bc51U, 0x3e23be7cbcdff69aU,
  0x3dd45c4f3d662a8aU, 0xbc46c04d3d905c34U, 0x3c32df5dbde93450U, 0x3d5739233c600388U,
  0x3d5fe70dbcdef868U, 0xbd4e313bbcfe370dU, 0xbd5ff6b73e615474U, 0x3e3b9d9fbe3008aaU,
  0x3d9b145b3d1daa83U, 0xbc07a7d73d1be6b1U, 0x3dfd61d8bcaac8e3U, 0x3d1525433d43b104U,
  0x3c0fab30bd8c6678U, 0x3dc2e72b3db66471U, 0xbbaee6723dd663edU, 0x3de581a5bd8f0a5eU,
  0x3cfdb7dd3d9751adU, 0xbdfc9005bcfbae89U, 0xbc0463d1bdd7afccU, 0x3d2ac79f3d6b1a5eU,
  0x3d4e32b1bba8f089U, 0xb8c440403d46b1abU, 0x3bfcbff03d990d63U, 0x3d7d143d3c4e29f3U,
  0x3c3880ffbca0c573U, 0xbd50c7d23dc95cd9U, 0x3dbcd04dbd5a233dU, 0xbbc427b8bd9799eaU,
  0x3bd1c5f43b360353U, 0xbd8bf0e73c2b3034U, 0xbd40a15d3e324ca5U, 0x3d90e13cbd8d2b7cU,
  0xbd0dc99e3d15cb59U, 0xbcd62c323d38184dU, 0x3c8d524dbe09aeceU, 0x3d99e08cbd52d98eU,
  0xbca6ff92bd14e79eU, 0x3e4a15cc3d7c2e66U, 0x3d0295533e352759U, 0x3e035a053d2aea6cU,
  0x3e05f2bf3d4076eaU, 0x3c72ba0c3d532b43U, 0x3dd634443d3e6c1fU, 0x3e5c8fbabdb099c6U,
  0xbdc250443c272456U, 0x3e6b6cd5bd1a836bU, 0xbcb9118e3e5dd79dU, 0x3d79f5433d6eadd5U,
  0x3dedd8373d84023eU, 0x3d9d15743dd61cc7U, 0x3dbe3e843cc258e9U, 0x3e333e7abdb0415fU,
  0xbd410b3e3d3d55c1U, 0x3e9735c93cdae114U, 0xbcd0f37c3e16cce1U, 0x3db2caee3e3c6f04U,
  0x3dfb24eb3cf7abc2U, 0x3da5b9543e5246e4U, 0x3db9644cbc8c96ffU, 0x3e0c50683c9c0a34U,
  0xbd9f496c3d4f3d81U, 0x3d838a54bdda0489U, 0x3c8a79643ddcb572U, 0xbb554d283dfb07ddU,
  0x3d2bdb953d46a9c4U, 0xbbfb16a43e2476dfU, 0x3dc51f1cbd66f681U, 0x3decb2993d2b39f4U,
  0xbde6bf1b3da98958U, 0x3e54943f3ae34c28U, 0xbcb468023dcae03bU, 0xbc6242d53dca9e48U,
  0x3db50984ba252d69U, 0x3ddbfe033d99a729U, 0x3d2e6a49bd91dbdcU, 0x3e067b583ac20d91U,
  0xbcb1501c3e0ac1a8U, 0x3e17b348bddc8adaU, 0xbd06e5a53d2458e4U, 0x3d938d873db4ec17U,
  0x3d69bd1dbd247868U, 0x3d860d0f3df9f7efU, 0x3dd175f9bcb39393U, 0x3e182851bcd8aaa3U,
  0xbddebbcb3dc25c81U, 0x3e4a3c45bd468399U, 0xbb4e602e3e0f13cfU, 0x3e06c4863db398acU,
  0x3c7246dcbca635dbU, 0x3d85767c3e1a36a6U, 0xbcf7c13abd84192fU, 0x3d82c81abd188288U,
  0xbd830ce93cfd5428U, 0x3e62c9963c20a01aU, 0x3dadc9863d918218U, 0xbdccd19e3d4ef943U,
  0x3dc6c2e43d86650dU, 0x3d565fe03e078cb8U, 0x3db60aa5bc9f55b0U, 0x3d2d5fc03d497861U,
  0x3d21b1883d4bec3bU, 0x3de6fb9ebd9a0080U, 0xbcfab67f3d96a037U, 0x3d430c7c3dbc6b53U,
  0xbcab9574bda01246U, 0xbd49deb73e333188U, 0x3def533ebdf93fe6U, 0x3c54e9673bed10b8U,
  0xbdca4a833dbd7f06U, 0x3e0238153d5e2b5eU, 0x3ceeeaf63de38596U, 0x3c6780db3dd0476eU,
  0x3d7d13a23d5d4ca8U, 0x3c85628b3de24c4dU, 0x3e0325fabdbd9fd1U, 0x3d95901ebd60003aU,
  0xbc14109b3db7a4d5U, 0x3e23c292bd8c437aU, 0x3c9de0df3dd9886dU, 0x3d4e62543e04d820U,
  0x3d49bff2bb2dbc89U, 0xbc890c0e3d6715f3U, 0x3cca6777bdca4266U, 0x3d6399cbbd34ce80U,
  0xbdf1a8e93da0dfb0U, 0x3e48884bbc145df1U, 0xbd08d2e83e24746bU, 0xbc4501243d40547bU,
  0xbd75638cbd358008U, 0x3dd1940a3d9516feU, 0x3d91c3743b8df13dU, 0x3e0f28b43d2162c9U,
  0xbd7e1e1b3dc6db20U, 0x3da4e4693c7c9321U, 0xbd46c46d3db22c68U, 0x3d94aa6b3b810183U,
  0x3d3605f43ce33690U, 0xbd2b1d4c3d9e15edU, 0x3d02ffe3bcfb01c8U, 0x3e2c4a053c5ea5a7U,
  0xbdcb72533daa7e11U, 0x3e1e03b1bc20b82cU, 0x3d4c40163d244eabU, 0x3cb6ea29bc4bade0U,
